node {
  name: "x"
  op: "Placeholder"
  attr {
    key: "dtype"
    value {
      type: DT_FLOAT
    }
  }
  attr {
    key: "shape"
    value {
      shape {
        dim {
          size: -1
        }
        dim {
          size: 784
        }
      }
    }
  }
}
node {
  name: "Variable"
  op: "Const"
  attr {
    key: "dtype"
    value {
      type: DT_FLOAT
    }
  }
  attr {
    key: "value"
    value {
      tensor {
        dtype: DT_FLOAT
        tensor_shape {
          dim {
            size: 784
          }
          dim {
            size: 10
          }
        }
        tensor_content: "\000\000\000\000\000\000\000\000\000\000\000\000\000\000\000\000\000\000\000\000\000\000\000\000\000\000\000\000\000\000\000\000\000\000\000\000\000\000\000\000\000\000\000\000\000\000\000\000\000\000\000\000\000\000\000\000\000\000\000\000\000\000\000\000\000\000\000\000\000\000\000\000\000\000\000\000\000\000\000\000\000\000\000\000\000\000\000\000\000\000\000\000\000\000\000\000\000\000\000\000\000\000\000\000\000\000\000\000\000\000\000\000\000\000\000\000\000\000\000\000\000\000\000\000\000\000\000\000\000\000\000\000\000\000\000\000\000\000\000\000\000\000\000\000\000\000\000\000\000\000\000\000\000\000\000\000\000\000\000\000\000\000\000\000\000\000\000\000\000\000\000\000\000\000\000\000\000\000\000\000\000\000\000\000\000\000\000\000\000\000\000\000\000\000\000\000\000\000\000\000\000\000\000\000\000\000\000\000\000\000\000\000\000\000\000\000\000\000\000\000\000\000\000\000\000\000\000\000\000\000\000\000\000\000\000\000\000\000\000\000\000\000\000\000\000\000\000\000\000\000\000\000\000\000\000\000\000\000\000\000\000\000\000\000\000\000\000\000\000\000\000\000\000\000\000\000\000\000\000\000\000\000\000\000\000\000\000\000\000\000\000\000\000\000\000\000\000\000\000\000\000\000\000\000\000\000\000\000\000\000\000\000\000\000\000\000\000\000\000\000\000\000\000\000\000\000\000\000\000\000\000\000\000\000\000\000\000\000\000\000\000\000\000\000\000\000\000\000\000\000\000\000\000\000\000\000\000\000\000\000\000\000\000\000\000\000\000\000\000\000\000\000\000\000\000\000\000\000\000\000\000\000\000\000\000\000\000\000\000\000\000\000\000\000\000\000\000\000\000\000\000\000\000\000\000\000\000\000\000\000\000\000\000\000\000\000\000\000\000\000\000\000\000\000\000\000\000\000\000\000\000\000\000\000\000\000\000\000\000\000\000\000\000\000\000\000\000\000\000\000\000\000\000\000\000\000\000\000\000\000\000\000\000\000\000\000\000\000\000\000\000\000\000\000\000\000\000\000\000\000^<\262\265\006Z%\266\230\230w\271\332\023\227\267.\360\001\273\374\377\323\267g\234 ;I\304\027\266\325\201\032\270\004\317\030\271\235\2572\267\326-\376\266e\312\343\270\233\3528\270\010\311\226\273\222Nj\270\302\346\254;\2224_\267(\373\303\270 \373\262\271@\216\020\267^\314\"\266cH\3569\275\265\255\266$\313\227\271h\357\034\265\262`\321\270\000\357\033\267\014\311n\267z\376\317\267\253\275\300\264}\020\331\263\355\332\2367\374\234g\264/dJ\2674?\321\262\314\225\213\266U\351\317\264\2630\037\265\246\251\212\265\000\000\000\000\000\000\000\000\000\000\000\000\000\000\000\000\000\000\000\000\000\000\000\000\000\000\000\000\000\000\000\000\000\000\000\000\000\000\000\000\000\000\000\000\000\000\000\000\000\000\000\000\000\000\000\000\000\000\000\000\000\000\000\000\000\000\000\000\000\000\000\000\000\000\000\000\000\000\000\000\000\000\000\000\000\000\000\000\000\000\000\000\000\000\000\000\000\000\000\000\000\000\000\000\000\000\000\000\000\000\000\000\000\000\000\000\000\000\000\000\000\000\000\000\000\000\000\000\000\000\000\000\000\000\000\000\000\000\000\000\000\000\000\000\000\000\000\000\000\000\000\000\000\000\000\000\000\000\000\000\000\000\000\000\000\000\000\000\000\000\000\000\000\000\000\000\000\000\000\000\000\000\000\000\000\000\000\000\000\000\000\000\000\000\000\000\000\000\000\000\000\000\000\000\000\000\000\000\000\000\000\000\000\000\000\000\000\000\000\000\000\000\000\000\000\000\000\000\000\000\000\000\000\000\000\000\000\000\000\000\000\000\000\000\000\000\000\000\000\000\000\000\000\000\000\000\000\000\000\000\000\000\000\000\000\000\000\000\000\000\000\000\000\000\000\000\000\000\000\000\000\000\000\000\000\000\000\000\000\000\000\000\000\000\000\000\000\000\000\000\000\000\000\000\000\000\000\000\000\000\000\000\000\000\000\000\000\000\000\000\000\000\000\000\000\000\000\000\000\000\000\000\000\000\000\000\000\000\000\000\000\000\000\000\000\000\000\000\000\000\000\000\000\000\000\000\000\000\000\000\000\000\000\000\000\000\000\000\000\000\000\000\000\000\000\000\000\000\000\000\000\000\000\000\000\000\000\000\000\000\000\000\000\000\000\000\000\000\000\000\000\000\000\000\000\000\000\000\000\000\000\000\000\000\000\000\000\000\000\000\000\000\000\000\000\000\000\000\000\000\000\000\000\000\000\000\000\000\000\000\000\000\000\000\000\000\000\000\000\000\000\000\000\000\000\000\000\000\000\000\000\000\000\000\000\000\000\000\000\000\000\000\000\000\000\000\000\000\000\000\000\000\000\000\000\000\000\000\000\000\000\000\000\000\000\000\000\000\000\000\000\000\000\000\000\000\000\000\000\000\000\000\000\000\000\000\000\000\000\000\000\000\000\000\000\000\000\000\000\000\000\000\000\000\000\000\000\000\000\000\000\000\000\000\000\000\000\000\000\000\000\000\000\000\000\000\000\000\000\000\000\000\000\000\000\000\000\000\000\000\000\000\000\000\000\000\000\000\000\000\000\000\000\000\000\000\000\000\000\000\000\000\000\000\000\000\000\000\000\000\000\000\000\000\000\000\000\000\000\000\000\000\000\000\000\000\000\000\000\000\000\000\000\000\000\000\000\000\000\000\000\000\000\000\000\000\000\000\000\000\245\0315\262G\205\235\262s9\214\266\244\275\252\261N\305\226\267\224~\360\263)\213\3057F\2550\263\274\366\030\265_\306+\265c\266!\263xcg\263\2204W\267m7\207\262,\346\270\270\244\373\260\264\372\340\3348\245Ms\264\334A\341\265\017^\005\266\n\326\204\266\247|\303\262\304\247:\271\375\246A\266Bb\306\273%\260\336\266\220p\316;\376,\210\267\257\243\301\265\036\301\031\270\277M\261\267\3509\354\267\033\263\314\271\314\212$\267\224-q\274\\\222R\267\034\367|<\374?\006\271\327\n\210\267\333,\355\270\251y\334\270~\016\244\272\340\033\0149O\220\255\270\366R6\274\1774\250\267u\231_<\004A=\272\033hG\271Kh\223\271\337[\373\270-\212\204\272\203\336[\272\255\206\315\270z\222\345\273;\355\271\267\"E#<t\303\300\271\206\023{\271rr\211\271\017  \272\322\305\030\272*\360\033\273\361\372\301\270\266\030p\274K\267\321\270g\"\245<9\240\320\271\304D\316\271V2x\272X\316A;\301\377\201\271\372w\260\273\366\240$\271\0037\254\274z- \271\210\361\357<\330b\037\273\277\215\037\272q\337\022\273q^\362;\013\267\252\271\347\305\335\273\203\321\341\271\013\223\006\275\352\365\324\272c\313,=4\243\177\273\233\262#\272\256\032H\273\037\367R;\010\361F\271 ^\202\273\236\250\207\271\3711\244\274\373\216\277\272\247\306\331<\244\275\314\272\003\3718\272J/\322\272b\240\n\272\224*\237;\315\267\004\273Bv\324\272J\357\256\273\261\255\177\272]?\t<\224H\242\271\266)\261\272\366\036\216\272ML4;\247\033\367;7Q\244\272=(\014\273\226M\014\2740\312\241\272.6\372;d\3208\272H\033\211\272\357\301C\273\276\211\n<}>\231\272h\002\031<\014@m\272]ME\274\313Y\216\272\335W\263;b\362\245\272\215\026\201\272\024\205\276\273\276\336\200;\321\231\207\272G\253Z;K\202\253\271j6\351\273\2365\034\272}\235\324;\233a\022\272\224\226l\272R.S\2737\004(\272\021(\004\272\246\220R\273q\370\223\271}\274\204\2734\262\027\2729\367D<\333\267)\271\240\000\233\272\203\201\270\272n\020\021\272)*\375\271b}W\273\343\352\305\271\227\264\210\273\212\363\364\271;I@<\212\3533\271\000\033\235\272\362Y\206\272Nsh\271N\017X\271\321z\335\272\366\251(\271\177)\207\273\221\303R\271m\304\373;X\211\217\270\032\376\017\272\371\354\361\271\311\211%\270\375\242~\270\002\215\205\272]\2239\270\033\300\235\273\255Q\r\270#\021\325;\331P\331\266q:\256\271\372\264\037\271\225$\003\267)\024\230\266\267\024\331\270\247Ff\266\244(\256\273\240\001k\266\242\251\266;\314L\210\266\364HU\270D\221\253\270\354>\244\264\267%n\264\323\320\016\270\226-\340\263>2\221\272\203LV\266<\027\236:\337 \274\266j~^\267\253\237.\270\000\000\000\000\000\000\000\000\000\000\000\000\000\000\000\000\000\000\000\000\000\000\000\000\000\000\000\000\000\000\000\000\000\000\000\000\000\000\000\000\000\000\000\000\000\000\000\000\000\000\000\000\000\000\000\000\000\000\000\000\000\000\000\000\000\000\000\000\000\000\000\000\000\000\000\000\000\000\000\000\000\000\000\000\000\000\000\000\000\000\000\000\000\000\000\000\000\000\000\000\000\000\000\000\000\000\000\000\000\000\000\000\000\000\000\000\000\000\000\000\000\000\000\000\000\000\000\000\000\000\000\000\000\000\000\000\000\000\000\000\000\000\000\000\000\000\000\000\000\000\000\000\000\000\000\000\000\000\000\000\000\000\000\000\000\000\000\000\000\000\000\000\000\000\000\000\000\000\000\000\000\000\000\000\000\000\000\000\000\000\000\000\000\000\000\000\000\000\000\000\000\000\000\000\000\000\000\000\000\000\000\000\000\000\000\000\000\000\000\000\000\000\000\000\000\000\000\000\000\000\000\000\000\000\000\000\000\000\000\000\010\222^\262c\330\325\257\034\207\365\263\337\220\304\260b6\232\265\"\217\216\264\377\002\0306\314\201T\254\030\271\016\265\271\330K\264\215\223\0029\201f\236\265\365w\223\267G\2049\267\243\253\362\270\350\371\022\270+\226\3548\335|\265\267\323\005\243\266\337\363\375\267v\030\2607\357\0108\270G\2040\271\205\3558\270\335\356u\271\327\324D\2704v3:M\026[\270\270\204\\\270\003\036\204\270\2155\031\271\244-\226\265\264\202.\270\037\313\n\270]o[\271\270\254\326\265\304>\3539\215@\027\266{\305\006\267\341B\274\266\3328\025\273\326\361;\267(a\236\272\260(c\271\337!\330\273\0260\330\267\25430<\214\016\215\271\377\317\254\270\245I\217\2709<8\273I\3327\272\273\376\360\272L\357P\272B\317\305\274\230Y\305\271\3327\005=\254xf\272\261~\321\271\266q\026\272\017(h\273u\267\200\273\224K\335\271\321\2604\273)\354\345\274`_Q\272\013\2112=5\013\t\273\0138\210\272\242\374v\272\033\352\345\273J\007\321\273\024O\260;bQ\250\273\016\340\t\275i\235I\273\353\233k=.25\273\324HV\273\361{\321\272\302\307\006\274\201\333\002\274\352\362\202;\375\206\375\272\2168\206\275\230\025\004\274|\334\321=\370A\203\273fI\314\273\374\322\222\273\231\3123\274/\232\014\274\375\343\222<V\355\234;\232\312\246\275\3249\207\2746\262\365=Wm\006\2747\203\034\274Wd\363\2734\314O\274\226f\360:\326\002+<e\035\234;\354\315\333\275\nI\252\274\224\032\">RK\021\2741\231l\274\305\0248\274sB\247\274\243\300\337<`\322K:\277v\341\271\360\317\314\275\220:\317\274\310\214!>E\321\320\273\361\016\241\274_\377_\274\200h\000\275\370p\000=\017[^<\353\315)\270\023V\243\275d`\337\274\242\337\014>L\037\340\273]c\261\274~\205\177\274\322J\016\275\274\307T=\"\3503<\277\220\002\274\010 \227\275\010#\254\274\031\264\377=uE\373\273/t\310\274\021\215\224\274oH\354\274\216\031\370<\326\307\330;?&\344\273\207\346\214\275E\216E\274\373\330\003>\023\254\336\273u\354\302\274}\310\226\274\362~\306\274\307\323 ;\250\016\266\272\311\206\232\273{\310)\275mrg\271\220{\327=\217\"\235\273\017N\224\274\202 Q\274\3469\250\274\347W\223\273\rE\213\274\212H\002\274\302\320\361\274\236\336\237;?\337\306=dp<\273.\216*\274\\\253\026\274\016\"\220\274\005\331\274\272\200A\003\275\207\010\346\273K\256\213\274\364\021\240;\325\003\300=\005\361\013\273^-p\274\344o\333\273\256\236B\274N\346\263\273\256\021\251\274u\037\220\273DEM\274\340\356\005\2741\204\232=\303\341\347\272\223\243\347\273Sie\273]\026\305\273\177\227\224\273\370\001\207\274\317\321S\273\036\237\002\274\255E\023\274\313eb=\265\220\206\272%\374\225\273fK \273*\204a\273\215\237.\273\242\032\206\274\"M\024\273\341\203\360\273z\020\241\273{\277)=<\036\343\271.:1\273\252\325\253\272\037\360\327\272w\001\314\272^\245\006\274\217\220O\272:c\226\273\306)\203\273{\270\273<rJ[\270\375\221\353\272|\t\210\271,a\210\271\275\225\025\272\343{\213;r\024\334\270#N1\272\255%\024\273m\013Z:\354\360<\267@\251\231\272\277g\007\270g\330&\267\373Z\254\270Te\231;-a0\266\355\205)\271\367\257\233\271\306@r\273*\260\217\263\023\344\340\271!S \266\000\000\000\000\000\000\000\000\000\000\000\000\000\000\000\000\000\000\000\000\000\000\000\000\000\000\000\000\000\000\000\000\000\000\000\000\000\000\000\000\000\000\000\000\000\000\000\000\000\000\000\000\000\000\000\000\000\000\000\000\000\000\000\000\000\000\000\000\000\000\000\000\000\000\000\000\000\000\000\000\000\000\000\000\000\000\000\000\000\000\000\000\000\000\000\000\000\000\000\000\000\000\000\000\000\000\000\000\000\000\000\000\000\000\000\000\000\000\000\000\000\000\000\000\000\000\000\000\000\000\000\000\000\000\000\000\000\000\000\000\000\000\000\000\000\000\000\000\000\000\000\000\000\000\000\000\000\000\000\000\204\306\371\262W\271\2028B\274\351\266\331\037k\266\217m*\266^2\236\265\340<\034\270\233\360\361\261\003Q.\267!t\374\264\343\273\317\270\316\241U6\204&V\271\207\t\317\270l\256S\272\250\222\214\271\247\301\017;\023\200\264\270\206V\364\271\222\033/\271=\003*\273\273\213\014\271\301\004\212\272:-\204\272Vt \272\347n\343:\207\253\225;\372\016\352\271\334\331h\271h\317s\271\356\350\350\273\245\221\253\271\202\324m\270\t1G<2Qe\272\0254\351\273\220H\256;\034\370\214\271\315R\322\272\241\236\372\270_c(\274\323\374f\272R\001\000:\313T(<\37587\274\211h\261\273\367/\265<\335\230a\272\342\303f\273[\235B\272 \253g\2744P\252\273\207\007Y<$\311\271<V\322\346\274\253\311L\274;\261\031=\3558\223\273\341\177\346\273)\005\372\272\300\347\t\274\2266~\274\242\310\026=\032\'\004=\323$k\275=\371\210\274\217\376]=\213j=\274\213\365\026\274ej\221\273\221\000\320\274Hr\342\274\321\344\336=\3456\336<\3515\255\275\024N\357\274\220\365\221=^%\202\274\030\242\202\274\253\200\014\274P@\326\2741\335E\275\227=\002>\022SQ=jy\344\275\366\327\377\2741\236\336=\257\261\337\274\273\201\330\274a\037\203\274\260,\274\274f=\220\275\230\020$>\032\322\351=\\\255\021\276)4Z\275\266\205\366=\227x\030\2750\3164\275\303`\310\274\322\247\t\275\364AM\275\277\3075>\237\230#>\336\266L\276f/`\275\263\360\376=\361\225\006\275\260ah\275\335v\n\275\223\023\234\274\306\250\334\2744\0326>\342\001\031>\202jm\276\003\004y\275x\315*>\006\r\022\275\233\243\217\275\274EK\275\320\006\026\275l\361\245\274\324t\353=\340\253C>\007\367K\276\266C\013\275 r6>@\236\025\275f.\301\275\242\243\201\275)\365S\275\346*\023;\266q\274=\377\240*>s\266:\2766\243\346\271:\3204>aS\033\275\203\342\273\275*\023\226\275u\027{\275\035\316\206:\t\355\331=p\001\006>\3166\022\276\tn\246\2733m\036>C)\n\275&\314\261\275\242\244\201\275\342\355\243\275%\177%\275b.4=\333\340\333=Y\177\325\275\222|\035=\27398>G\270\330\274\275\262\223\275S8>\275\234i\346\275mGY\275\265_O\275_\226\300=##\230\275\272I\251=\325\355L>\337\333\254\274\242\020\034\275\225p\336\274\"\355\327\275O\2741\275\3100\225\275\0212\225=\373\337\344\274\013c\242=\033r>>\017\312[\274\">V\275r\263\272\274?w\214\275\032\264\037\275\216\276\246\275\017pD=X\3638\274\345\001\225=\230#\020>\t\231?\274\255\223\010\275\202W\204\274%0J\275\343\232\342\274\3578\222\275\201\362s\274C\373\\\273\234\373)=\273\204\">\360\340\340\273\331:\217\274Nd\026\274\221\256\013\275F}\225\274zon\275\n\327\323\274^\215\324\271\316\333\226<\356\214\004>\242\324M\273p#{\273\366\005\205\273\270r\214\274\265\365a\274k& \275\356\336g\274\3713\231;s\252y\274\311\310\303=\031\221\016\273#s{;$j$\273\240@\336\273[P\027\274\034C\023\274\276\310\232\273s?u\273v\310g\274-\370M=\223f\034\272\237\331\272\272\375\352(\272O\347\310\2721\310\001\273\366\274O;\246k5\271\001\360]\271U\024\032;k\262\303\272\300\240;\267H{\254\270\'\301\031\270_W\263\271\230\364+\273C\030[\271qf5\270d\244L\271P\020#9\205\201\205;3b\022\266@\207S\272=z\371\266\000\000\000\000\000\000\000\000\000\000\000\000\000\000\000\000\000\000\000\000\000\000\000\000\000\000\000\000\000\000\000\000\000\000\000\000\000\000\000\000\000\000\000\000\000\000\000\000\000\000\000\000\000\000\000\000\000\000\000\000\000\000\000\000\000\000\000\000\000\000\000\000\000\000\000\000\000\000\000\000-\315e\262b\326N\262PXy\266\312/\2656\002\346G\263G\325\263\265\203\366\303\261\204)\250\261\225?\213\264N\032\'\261\327\241T\270\023\005Z9\206d\373\270c\327\3709h\023\262\266\362\234L\271\\X\037\271\005\005%\265Q\232\"\271\360}\202\266\32401\271\247\2272\270E\345\217\2720cu;\020\237\007\272;\216\324\272v\232\3649\222\255\3418\233mH\272\3002\335\270~\270D\273K\370H:\322\260\t\274U\306z<w\277\224;5P \274\253\245a;\233v\010\272Lt\003\273\222k\261\271m\331q\274\364\366\303;a\260\307;\212\260c=\273U\232;\371\236\"\275Z \226:L\001\274\273\241\005:\274\255\244\000\273\2112\221\274\t\374\031\273j\306\017=I`\302=[t\357\273\022vt\275l\035\311\273Hz\336\273\366\377\305\274\355\262\277\273\317{L\274\243z\276\274\022l\032=\364C\023>\206k\210\274\360n\220\275R9\\;.\245\223\274\275\264\004\275\245 =\274E\344s\274/&*\275\261\036\255=#VG>e\017v\275B\376\361\275\234\335\013=9\377\007\2756\311\277\274N\311\264\2741$\257\273\333\341g\275\342\336?>\200@T>\201\036\334\275\311j\377\275Z\"\203<\244\271k\275\201I\236\274\033W\"\275\tPm\274o*k\275U\336]>\030ev>f\2200\276\235\327\306\275\316W\'=K\375\256\275\276Vj\274\340ei\275\320\007\203\274\307&u\275\335\021\203>\300=\227>\3125M\276v5\261\275\301\013.\274$\022\326\275D^C<H\340\256\275\211c\'\275\nPH<\270\321\210>\017\344\220>Kua\276\275\010\377\275\301\267\224\274\211:\000\276\333#\267=\241\274\373\275\333\022X\274#.\337=@AC>\032X\214>\020\224Z\276\373y\035\276\232\235a\273\364\274\023\276M.\332=\003\315\033\276\261\256\347\274\267\261\020>\332\3763>p\320g>\022sm\276\001\203\233\275\206B\001\274.]#\276\327\367%>\'\335N\276\310\020\360\272%O\354=zU\375=`\2133>\373\347f\276\376z\211=1E\322\273\200\025\"\276\363\234\r>sHi\276\272\212>\275\3653A=\371(\331=\267,\034>$D\027\276\367\000\306=S\352\230=N\364\023\276\344\206\272=0\354j\276\2510\276\274@V|\274J\216\262=x\250\251=\337U\312\2750\001\334=\374\331\014>\246\341\362\275\223\305\265<s\2079\276\376\r`\2756\216\016\274%\215J<\313h\307=H\212\255\275\253F\005>\236\233)>\222\377\276\275\362\263\325\274\246W\r\276\235a\242\275\352\323\253=\020El\275\233\366\335<\006&\031\2745\223\237=\311\3329>\331\322\212\275U\337<\275\344\256\341\275(U\203\275\231\310\001>\242\234\272\275E\242K\275\37581=>\212\013<\237iD>\2522\\\275\036$\005\275\346\003\242\275\013\377\205\275\212W\341=<r\007\276&\265\307\275\307\204?=\000\t\307=,\374X>\230\254\374\274\233G\245\275L\037r\275\372zc\275\2111\200=/\306\006\276\213$\271\275\353\245z=\177;\334=\266\262F>\252c\254\274\202\375\275\275\034A\013\275g\177X\275\016#\243<\373\242\312\275\014g\257\275,\003\214=0?\336=@W\010>O\021C\274\022\244\206\275\301Ms\274\301]5\275\371\255\367\274\260\366B\275 \320\267\274\236\3311=*M\251=\251\242\032=y\243\205\273\003\234)\274\347=\237\273Dd0\274\'\305\220\274\261\220\267\273\250\373\021\273\004\360f;H\277\277<\262/\250;\2418\207\272&\213\330;u\330\263\272#\220\274\272>\342\026\273\205\2075\272:B\001\271\317\316\024\273\033C ;\030\026Q:q\226\022\271gq\206;A\227\306\271c\023\354\267\320E\252\272\223l\n\2721,Y\267`\225\010\272\234\205\333\271\251 \035;\010\002\261\266\201\207\3509\265\326\351\267\000\000\000\000\000\000\000\000\000\000\000\000\000\000\000\000\000\000\000\000\000\000\000\000\000\000\000\000\000\000\000\000\000\000\000\000\000\000\000\000\000\000\000\000\000\000\000\000\000\000\000\000\000\000\000\000\000\000\000\000\000\000\000\000\000\000\000\000\000\000\000\000\000\000\000\000\000\000\000\000\244\005\343\270\210\321\2726\317\003!9\263\215\244:}\027\352\267T\256\211\272\345\025\311\266{\346l\267=\353U\271\256\245\201\266\302G\244\272\371\345\347:\376?\255:\r{\223<[\312\2709.\310\006\274\212\003\311\273\362\352\300\271\233\347\230\273\2371Q\272\006?\024\274\033\235\020;\354\224\210;\205\362M=t\232\247;\215\031\r\275\277\301\315:\246\366U\273\207\266O\274d\237\177\273\225\223\343\274:\031;<\367\241\320<pi\372=\266L\202<\344W\221\275f\342\004\2757h\013<\312\212\023\275\274\007\206\274,D\343\274\320\232|\274H\334\220=GpA>\257b\205<\257\347\345\275\016\222\010\275B\0173<\026\017o\275\230\265\"\275A\373$\275P5\203\275/\264\372=\332\245[>\223\354 <F \255\275\263\222\366\274Z\244<:\023\234\206\275\322\202\200\275\256\330\036\275)\344\002\276\326\211H>SYI>\366\337\232\273wv\223\275$\232\r9\235v\213\273\236\373v\275\327~\255\275x%\t\275\220\271\025\276\n9m>i\311L>d\332\214\2743\227\233\274\247v|\274\201\277 \275\241\226\037\275\321(\372\275\374M):\246\027\337\275\201\026\203>z\023@>?\273\303\275K\r\257<\346\274\020\273%\303\313\275\360\301\206\275\376\270\277\275\353\276Q<j\314\223\275\212\313\204>B\327\035>\345r\006\276N\344\224<7{\t\276\r\\\034\276\344\263\221=\365\202\316\274\2049\341<\311\361Q\274\370Fi>\304\313\247=D\212\036\276\354\033\351\273\177\265\347\275\213\242A\276\002V&>k\324\271\274\244\033\342=v\305\204=\334\275u>i\253\252=n\315C\276\2621R\275\001\231\020\276\235c\177\276\034\365!>H\026\301\274q\370\021>\355*\325=\037\334j>\335\rK=\332I\254\275\r4\205\275hU\265\275\021^\235\276k\317\036>\337\326\n\276v\237\024>\251\327\322=\267\315y>\355j\263=\314\203G\275\371\220-\275t2\321\275H\313\245\2760\272\037>\302\323_\276\234Z\022>\'\376\000\275W\266\203>H\341\360=\003\247W<\002\311R=\235\006\231\275\026\212\232\276a\265#>\214!\253\276Mu:>@\254\271\275\276\330g>\325A\001<\355q(\273/\257\337=:\307h\272\271\213\215\276%\264+>\331:\245\276F\240\003>\304\270\024\274\026;\373=\350\376G\2740\351,=\353W\276=\371\330\253=\300\017x\276D#\223=|\243\216\276)\342\036=\301\277\237=\217\026\232;\270\002\215\274)\355\302=J\343{=`\224\n>K3^\276\177\367\212=\370\024}\276\334\244\304\274e\032$>W\266\032\275g\213\211\275\273[\256=\260\025\372=\007]\360=\035U4\276\301\260\000=\324PX\276\217\367\324\273\344\235Z>\022\344\200\275\2426$\276\357\356\264=\200M\020>\231^\356=\317\254\353\275\306\347:\275\214\261,\276\245\006\035\275\2224\'>Y\262\326\275\213[)\276)\266&>\372i]>\350.\276=\211\026\243\275\366S\325\275{@\022\276\200\215\255\275\231\257\250=\243\264\001\276\273(\031\276c\005Q>\032nd>\257\360\275=\345O>\275Y6\316\275\307\340\300\275\224\372\237\275W\2316<\0211\240\275*\342]\275b\'\265=3\2551>3\000\007=\371\245\211\274-k\023\275F2/\275\3019\002\275\246\216\371\274fi\227\274\277\014+\274\227\242<<\220f\272=\t4(\274\217~\216\273\215\310\215<\205\020f\274\017\210\024\274;\367\241\273Bx=\273>v\237\272\np\243\273\246m\314<i\316G;\304d\276\2729\335\024\273^\023\232\272\237\375\004\273\302\211\330\272D\013J\272S}\301\267}\213\243\270h\246\355:\032Of;QHU\270\305\206;\272\001\323\006\267\000\000\000\000\000\000\000\000\000\000\000\000\000\000\000\000\000\000\000\000\000\000\000\000\000\000\000\000\000\000\000\000\000\000\000\000\000\000\000\000GD\222\265\301\266\024\265\201\372N\266\037\202\2578z\300f\264\250*8\267\025\347\342\263\227\225\266\265\273\236\320\2664\004|\270!\352\225\271nb\032\273\233\214\232\272|A(;\264j<\272\005K*\272\334t\220\271\363J\240;6\017s\272\032\343\213\272q\223\330\272\3552\022;\277Z\213;\310\350\031=\322\231\277\273J\323\347\274\307\240\030\274g\210\243<cRS\274\273\351\304\273\231\262\200\274\371\236A:bJ\273<y\004\271=\221N\376;\217\335\207\275\245\200\202\273-Os<C-\310\274&\256\325\274\r\251\346\274`)\250\274\n5q=\327\333\037>\030:7=\\\241\313\275\327\037\010\275C\033.=\036x5\275\367\332\234\275\246M\031\275\224;p\2753\264\002>\211\341K>\270<G=\362@\353\275\266go\275f\371\244=.\371\215\275\210\020\360\275\241\256X\275\262x\361\2751\262)>x\303\">g\213n=3\223Q\275I\371\360\274y6\262=\330\345u\275XN\"\276\212\001\217\275\315\235A\276_\3619>\344\340$>\004\014\217<rw\206\274,!\006\275\231\224\342=\3424\242\273\252v!\276\"T\273\275{\330c\276\357\n]>(\366=>\237<\367:l\273\317<i\261d\275\250\377\233=(/e\274\340\311\367\275\021\357\332\274\346&2\276\335L<>\254\262\025>\240o\263\275\310\316\232=\221\356\356\275#Y\267=C\006\322\274\245=\204\275\001\222\243<Zx\317\275\204{\300=\306u\311=\'\2616\276]r\234=\023\224\021\276Sy\200=n\373\327<\375\2044=\\\242\023=\263$\276\275\251@\327=*\227\244=\243EI\276=\225N=\212%\343\275\321\272\034\275k\324\256=+k\246=\202\217\336=\255\215\215\275\374\\\003>\177\211\035>\305oe\276vz\006=\025\350-\276GN)\276V\372\375<\366\3401>\367`\360=\253\364\255\275\035\230\000>\304\360\005>J&{\2764\177\244=l\202!\276\304\004D\276\225[\027=\025\330@>r\273\341=<\325\024\276\r\t\367=E\246\367=:8y\276\242\362\214<\371\023\t\276\037\346\t\276\000<+>\362\357\367=_ \'>Q\266>\276\247\235\321=\032\027\037>N\353m\276\250]-:\n\006\024\276\342\026\345\275<\322\304=A\026!>\361\352c>\373DP\276D\206\177=,=\300=\004\2018\276\240\244\355<\354\016\374\275\261?\305\275D\331\247=\376\301\347=\221\316T>\026\214\311\275\017)\352<\000\205\003>B\255/\2764Z\231=\302c\370\275^\270\007\276\020\333_\274\376*\310=\205\255\366=`)\352\274\351\213\313\274A\323\007\274q\350\016\275={\325=\036\254\224\275Bl\024\276yA\361=\264&\350\2741\234\243=\215\366\264=\342*\231\275\031}\231<G\341\227\274\360\032\322=3\027L\275le\360\275O\'\212=\037\240\305\275dY\003>+\232\325=[k~\275\t\327=\275\220\227\234=U\215\300=\006i3\275d\210\227\275\2103\355\272y/3\276G\354\320=k\215\252=c\254\340\2756\024\033\276\215Ec>\361\324Q>\334\242.\275\210x\261\275k\363\207\274y\tR\276\221\276\033\275\325\376\005=\2658/\276x\277(\276\254\274\206>\037\252\245>r\033\t\275\345@\250\275\321\353F=\'\2716\276\265K\354\275\206\331z\274Ew\303\275\003\244\233\275\027\\\346=l\267\256>W\302\317\274\226\2029\275\313\202\217<z\246\311\275\373\316\230\275\351\320\016\275\226w\354\274\202\373\275\274\215\007{<%\322I>\350\001\327\274d\244\243\274\005\\\375<\351\274\021\275\013:\370\274h-\212\273*\374\207\273fep\273\376\353\377;vU\203=\371\033E\274\200,\354\273M\327w\271\306\355%\274\236\000\305\273\256I\035\270\3702}\270\207\347\201\270Y\215\240\271\321\375\025<\275\372\326\271L\247\327\271\'M\210\272e\301U\272\000\000\000\000\000\000\000\000\000\000\000\000\000\000\000\000\000\000\000\000\000\000\000\000\000\000\000\000\000\000\000\000\000\000\000\000\000\000\000\000\226\r\200\270`\033\215\270\371\344\025\2714<\';{1\351\270IN\273\271%\326\217\266\007\354M:\226\262A\272k\017\363\272\265\003D\271+\336\333\272q\201P;\034\267N:\364\254\212\272\225\216\335\2737U\215\272\354<O<\033\302\370\272(\272\201\273\3722\032\273\213\205*\273^l\n<qN3=b\351\205\273p\2379\275\316gF\274\032/C=\333\2157\274\030\346\265\274\346\233\276\274q\352\361\2734Pu=\221\244\032>\235\017\240<\354\362\013\276\257\365.\274\214@-==\231\240\274\276\344\231\275\252\227\324\274\031\377H\275k\373\261=\023\004Q>E\326l=\036\310\034\276\361$\020\275j\371\312=\001\311\352\274\275\266\037\276q5!\275g%\316\275O]!>\3315)>\242L2=\235U\346\275\343\306\225\275\264\003%>\240\331\200\274\211\240>\276\"\201\216\275\216\036\021\276\0232\020>\302\376\252=\246\373G=\201\024t\2740\250K\2756[D>~u\223<\336\357S\276f\317\341\275\336\210p\276\313\377:>\234\3130=N\315l\274.\010\205=sQI\275<\262Y>\026\366\036=\311\224\010\276\226tN\275\274\350|\276\323\226\373=d~/=\277/E\275\374d\305=A}\244\275\366?f>\000\307e<\374\322\231\275\343\036\271\272\265{]\276\237Q\221=\221\275X<\356\271\001\276\361`#>\251h\013\276>,g>\275\374_<\216B,\273\233\325Q=\207\374:\276\270\204\207=\224\254\331<\206$[\276\304,$>h\005\367\275\224\232R>\236\257X\275Hlv=D\303\'=\'\334\352\275\350\003D<\222-\322=\000\325\252\276\3760\243=v\302\345\275\n\003 >H\274\357\274\223\rK>\004\013f=M\344\362\275\375\r\246=\004\303\013>\231H\235\276O\204\250\274\"\314+\276\301a\215=\026\2510\275P\006\241>\326\244R=\366\275\010\276\213H1=\267\303T>g\034\300\276\251xi=\251{!\276AS\207\274\346\235\000\276\326\356\345>T\324\222=2\004_\276@\217\2407T\336E>\370\264\331\276Ra\350\274 \217\030\276\213W\303<\352I4=O\237\371>+\324\366=c\312D\276_\346\000\275b\253\244=\234\305\306\276$\034H=\277\320_\276\225%\315=x\361\306<\035\224\351>O\322W>(\257,\276\021\362\364\275\355\371\264=\352\020\216\276\213\333\260=C\022X\276\211\355)>4>y\275\240\200\222>+\312Q>\337\213\024\276\326d\204\275\330\356A=vEc\276\0343\270=\033\375\204\276\243\010,>\022\244\366<v\301\032>\"\033\025>\217:\323\274P\350\r\275\236\312\251=\264@\024\276\315\222\306=\327\222\210\276\362>\263=f>n\274\263\204\226=\344\342\236=x\250\032=P\334m\275;\325\207=T&\366\275\3764\226=\377\256_\276\351\331\260=\347\356\003=\306\177\275<E%\332=L\336\221;o\223\275\274\000\205\376\273\305\207\016<Y\322\236=v\033B\276\321\363\375<\352\376\206=b\336\226\275rm\016>\221T\267\274\273\367\013\275Dh\347\275\254O\032>\222\263\">\313\2715\276\016\2330<n\324\220=\"\216;\276Y\252R=\001\371\223\275\271\2545\276\025p6\276|fD>\243\236\274>&m\t\276J\007\030\275o\2379>QeF\276\326\251\271\275b\034\316\2754Z\373\275k\251\351\275\342\373\214=q\251\354>CBX\275l\275^\275\307E\024>\301\361\017\276\254\001\267\275z*_\275h/\003\275L\035\373\274\314\273J;7W\251>\016\226-\275\3065\026\275)\214Y<o\020|\275\226J\367\274\260e\233\273/;\236\273b\2365\273{-\025<\261\241\232=iA`\274\360\026\000\274\r\3151\273\003Q\222\274.\0324\273=\025\300\272\3048<\271\355z\347\270\r\275\301\271\200\277\371;S\256\371\272;\321\206\271\373\334@9\247\376I\272\274\340\004;\212\240\341\265\371\327\r\270\004\363B\265\232\342\365\270-T\207\266f\264\276\267\274\034\272\272j\020,\267\022\263\332\271\246<\220\270\232\007g\270\242\204\013:\203\243\371\271\243X\024\273\204\250\204\271\261~N\267\376n\356;\370\360q\272@4v\273\236\231-8\370\374S\272\007\325\215;\264{\021\273\031?]\272\360[\013\274;\351\271\272\206G\342<6nX\273\312\377s\274)\320}\273\013\003\323\272\232\252\363;P(Q=\023\007\037\274\303n]\275\251s{\274\325\363\273=\006\307\243\273\321\211x\275\271\366$\275\357jN\274\266\355\201=o\3759>\020?\233;x}7\276\220\351\214\274\222\353\344=\230\371y;\277\331\355\275>69\275\304\321=\275\213;\261=\263,3>$\3758=s\352/\276\206\226u\2759R\023>vY\034=I`)\276e\377|\275\003\312\327\275\242\314\007>\221m\325=\375T\213<\234:\335\275Q\240\305\275P\235%>\351\006\272=g\374\t\276 \204\275\275\372[\025\2765o\023>~\257\037=.\313\r\274\302\031\234\274\323Z\224\275RCb>\344\356\300=vj#\276\241<\243\275W r\276\264\366!>\204$\255<\271\360\243\275\327\375\310=\305,\222\275\322\260 >\206T@=\324+a\27472\353\272L>\214\276Q\037\001>\323T!=\260E\347\274\335+\221=f\277\312\275\360\000\000>u\313\375=\206\253\250\275\260\025==\205=\200\276\010\217U>\020\331\246<lx\013\276t\241\316=\357\205!\276\247o\021>\331\350\227=#\254C\275\034\277\265<\317\257J\276\244\"2>\372;\345\274H\320/\276\021%\020>?\034\003\276\363\316a>\3525\314<\367Eh\275\342N\\=a\210\354\275\360\221\244=\360\316\235<\265\345~\276\0255>=S\017\000\276Cvz>\335\300\353=J\202\217\275\324\274\t=\247s6\275\271zh=P\267\247=\234t\177\276v\224o\275\007\376+\2762v\002>x\025\274=V\n\004>\260!\252=\215\360\363\274\270\300\271=\230>]>\007p\313\276\222\312\346\275[\240_\276\2743*>K\033\304\275\335\206\230>\2635+>Y\004\215:\2727\234=\203kM>\036?\334\276BN*\276\351\305x\276ZMN>\247\337\235\275\360.\212>)\211\201>\234\t\234\275T\030\247\272^\277\316=\256\314\253\276\032\014\300\275\001+\217\276\035\243u>L\026\355<\242\220\'>\207\242f>\037\342A\274lX\377\274\202\254\t>\361\0164\276\374\375q\275\001m\262\276\205a{>\'\232\017\2757\237f=\231\177<>G\177\261\275\034\212U\275 \210!>\315\027\254\275\333+3\275\027\376\341\276}\274\206>^\344}=\217\356\'=v\277\375=\205\027O\275\356c+=d\203\005>\342\340\241\275\202\243k;\333Q\316\276\370.\024>Si\256=\243\365B;\367/\273=\270\351\244\275\372\232S\274D#!>\334\316\252\275j6\302=$O\245\276\253D\025>~\323!=\301\336\356\274\014j\233=\036m\002\276\266\342\256\274\340\234\351=\242\346\037\275=\317\345=\276\314\207\276\246\216s=N\002\271=\315W\206:\tE&>\000\340!\276\223BM\275\325\262\271<\035M\321;\217\377 >wD\200\276\023T\207=j\266\'>cX\365\275\267=\035>\332-D\2763/\347\275crY\276_\311,=\330\036\351>\362\032E\276\030\230\032\273\035\304r>\267\2644\276;m=\275\352\277\037\276$\010\020\276\213\323\027\276\005\205\324\273lM\'?\360\201\372\275\021\215\224\275\352\270/>\003\314\007\276)\371\310\275cmm\275\022\205B\275\2724\034\275\352\372\250\274\272\326\326>\314 \207\275\231\351B\275h\265\277<\023g\211\275ib\002\275\365\213\356\273_\005\264\273C\342P\273\303\032u\274\367\204\331=\244\016\362\274}\3451\274\336\311Q<\257\344\201\274\365y\332\272M\201\272\272\004\205\005\272\354b\027\271\3174V\272[\343\354;U\2724\273\272w\222\272\341\016,;M\372\271\2728\233K\266\241\257k\266\200\361(\266\213\356[\270n\231+\271|\001\246\267N8&\266\335\240&:\254\301\\\267,\244\304\271\362\016\311\270\302\013\213\267?\371\006\271\211\333\225\2713\373\'\273\004\362\256\271\323G\253\267\0310$<7`t\272^\367\270\273`\250\025\272\306\371c\272\206\304\215;\030\243\216;G\273\252\273\243\230\235\273\250\3501\273\360\334\037=m\207\334\273\301\222\333\274\216\301\310\273+\221\027\273\376\376\236<q\027j=\177\246\017\275\347\321^\2755\241\257\274\2126\372=\373\231\245\273/;\230\275\366D)\275\035\010\207\274\327\223n=\232[\037>5\322 \275<o\r\276%\231\312\274\273\215*>\027f\257<\312Q\021\276\213\323J\275\ro\201\275\035J\n>c\272\314=Z\200\301\274\277M\t\276\367\257\246\275\326\372\030>\3348\223=\335\370\325\275\\\307\224\275x\232\323\275\250\346\340=+\377I=\277D]\275qQu\275^\005\264\275\243\217\353=\262\223\344=\312\271\002\274\002\257\246\275\"\031\007\2767\203\214=\235-\250<Y\214m\275\257\031+=qw\010\275bj\207=+=\347=\335\374\255\273\177\032\201\275\3341K\276\247\016;=\317\345\317\274\352\217h\275.\237\037>%\n\003\275\356N\252<\306m\013>O?\214<\253\213\266<\217\311\201\276\000<\323=:\265\246\275\242\031\225\274\351\270\346=\022\244\343\275S\351\013=\350#B>\2312\036;\023]\200=\231`\\\276\031\326!>\001&$\276\0279\277\275O\321/>p\303\004\276\3722 =@\351\004>\235j\030=\"4\210\274x\323\022\276f\222\355=q\235\232\276\343S\337\275\214\331\211>\250\222\311\275\347\250\003>5\026\002>\366e\352<\261\014X<%\210\255\275/J\210=<\"\202\276\004\216\311\275\021`3>\031(\007\276\253\0051>\034\005\324=\241\245\033=\026\342\242=\311\0269=<~l=\327\277Z\275&\r#\276\234>\020<F\273@\2760j\023>\344\251c<q\345S=\202\334S=1\\A>\275\301\340=J\321B>\2031\357\276\373U\031\276)\206%\276\301\254\201>8!7\276\217\201\'>k}0=w\037\226>\301\016\017>\307\022\227>\353q\306\276\201\363\212\276\353\016\217\276\375\351\227>a\022\216\276\023\247\027>\330.\017>$\215\370=0\374\001>\373\324\177>\356\260\354\275\205\263\224\276!\367\316\276n\234\255>M\247$\276\002I\305\273\316\010Z>\226\336\030\271\305U\017=\323\277A>p\355;\274=\321Z\276\035g\373\276\320\033\244>C!/\275\314\243\273:\351\024[>\334\347\227\275\215 \023=\273\003\t>\371\240 <\271\205\034\276\027\260\367\276Mo\201>o\345\037=\\\270\320<U\3235>X\337\026\276\304\016\331<\004t\022>4\270\235\272m\272\212\275\316\004\336\2761\317g>ou\340=4\305\007\275\342\235\311=\207\234F\276\030\030\337\274\231\234{>c\364\t\275\026\006\243<\242N\250\276\276\271$>\317]\301=\370k\022\275m\215t=\344\334`\276)\303c\275!\3522>\366|a\275{\314%>B\376\201\276\344\230\030>+y\371=\032\014\252\275\214\326\014>\213\247q\276\020/\003\275 \250J=\367\344\202\275\325\353\203>D\241\206\276\247(\227=\306.?>\362\345\341\275i\347W><mX\276\340\334\351\275S\323\t\2765w\263\275\321\342\004?/\0305\276\355(\036\275j5K>\034\033)\276?\216\361<+\000\n\276%\211\016\276R\016\356\275\257\010\007\276gm@?\314\365\n\276O)\227\275\204\031\243=\177P\004\276\314\031\275\275\253\313N\275A\3261\275\211)\331\274\347\266\247\275/\277\375>\302\257\276\275\333\007\017\275\222/ \274\030W\201\275\370g\336\274\257F\307\273\345\363\215\273\203\267~\273C\021\275\274\225\257\311=\222\r\004\275\031`\364\273\344\252\265<2\227\206\274/t<\272\022C\021\272\024\330\361\271\375B\023\271$6\r\273M0\t<\333\223\353\272\314\206$;\013o\203\273\250\031\211\272|g\227\266\353\361\211\266\273D\221\266$\224\232\270<\016I\2716\237\317\267\031\223B\266\302\326`:b\254\226\267\212\346\013\272\260K\371\271\005a\224\270/O\340\270\320w\217\272\342\235P\273\361\010]\272\003\265\277\271\305\202e<\333P8\272\242\312\352\273&(\026;\'U\025\272COX;B\0103;Y\036[\274\376 \243\273\356c\315\273\353Dj=\333(\323\273?\312\n\275}gM\274XU\376\273\203\371\265<\222\276\217=[\2217\275\010\203.\275\342\320\265\274K\304\374=\267\273x\274\374\330\220\275:\n\036\275I\325\200\274a\2337\274\374\234\226=E\377L\275io\216\275V\241\031\275\233\001@>A\307u=0\226\311\275\307LP\275\033\314v\275\261\272i=6&\265\273{\240\201\275X\020Z\2758y\202\275\33357>y/\211=5~\307\273\332\234n\275z\343\343\275\022\322\203=\254\305o\275\253\231\271\275\265\\(<\360\334l\275\273\242\254=tr\371=\375)\304=\t\030c\275@A\002\276\327J\227\275\001\313\023\276\315}\207\275\366\342\n>k\230\231<\307\367Q=\'\371;>\344R\237=&\000\351\274\321\250\032\276\224g\274\275:\312\203\276q\347\007\274\320>f>G\002\214<\034\200\026\275\207\352E>\013\006\016>P\267\325<\370\277L\276\037E\007\276\322k\264\276\376S\334=q\223\203>\313\246N\275)c\026=\236\357k>\256\354\235=\344\n\346\274\303M\'\276\022\324\357\275\241\002\313\276\225M\312<\370)q>\376\037r\274~\010\243=\032\301\177>Vg\005>\3145\200\274\001\327\327\275\r\000\024\276\222\226\336\276\376q>=\265\362\237>\264\311o\275\221O\345<\247\327:>\203\016B>:E\242;x\177<\275BTI\276n\004\255\276I\372\302=/e\237>>p\323\275\223\242d<{$\026>\266\331\344=x\361!=\027\365\025>\235\311s\276\314\207\013<.\256I\276FX8>\346\020\230\275O5\016>1\232\211=\227\010\222\275t\316\373\274w\322\331>\354\234\230\275)\236U>2a\014\277\362\205#=YQ;\276\306\250~>\010\r\237\275\026\206\n\274M<\324\275\272p\374>\272\301I\275Q}\201>-be\276i\253\320\275\374\024\274\276\207e\304>\210\017s\276\347\234<\275\217\252\216\275\210zH>\003\336\332<Q\225l>\250%\220<\342\366C\276,;\332\276\367\270\361>\362\305r\276\364\315\232\274\250\367\306=\356\331\311:\235u\362<\245\"O>=\246\272=\022A\217\276\220Y\305\276\037G\260>0\345\022\276\323\341.=\254-0>\235\037\007\276VT$=\225\306B>72\246;\332G\207\276\014\260\275\276\253Q\210>\340o,=:UP=\316h\376=v\2334\276\276kf<%NI>5\237\251<\3668H\276X\220\255\276\251\322z>\217\036\344=\340\006\205\272\311\245\362=m\221t\276R\370\335\274\325O\203>\243S\322\275f\253\267\275B\037l\276fh{>\254\252N=^M\223<2\303\322= \376g\276TUr\275\302\210\362=\0175\340\275m\244\001\274\260\0223\276\367.i>\303\376\356=\317gH<\243\323K>\335\204E\276)[i\275\272\261H\274\000Z\377\275j\227\205=\253>\024\276!\017\320=\204\\D>\214\210\325\274\274\205\216>]]#\276\346(\310\275\033\377\263\275\315@D\276\360\357\237>\370T\234\275\323*\241\275\212\312E>4\207\274\275\223\320\311=\307a\325\275O\244\304\275\312\001\231\275\206\320\026\276\306v\026?\340\357\307\275jw\236\275\350\372\020=!\364\376\275\360\255\232\275I\215\014\275\226\010\361\274\266=x\274\257\330\260\275T\365\346>\356$\313\275\267\306\345\274\370C\336\274\304,e\275\203v\353\274\363\231\t\274o\261v\271n\337\027\273\263\242\313\274\310\253\352=r\332\370\274\356\r\336\273\007[\370:\322\016r\274\257\341\367\271@\027\177\270U\033\300\271\025\2243\270\021\360%\272\357u\244;\214\375\244\273P\"\335\270\325\271_;f\366\340\272\253\301\266\266T\3607\265\006\027B\266\334\366\361\267\372k\307\267\255{e\267\245\217\351\264$D\3139\376\322*\267\3705\236\271v\232\0349\371\377\2438\253\252G\271\230o\311\272aO\340\273z39\273\017\303\375\2719\332\321<\313ie\272\377hV\274\242<*\273\246J\352\270\326|\224\272M\367k;\266\264\001\275m\226\326\273n\344\260\272s\004\270=~\200\232\273\310\2549\275K\270S\2748(\242\273\241Y\242\273\331\025Y=\226\0213\275\322\001\'\275\273\235\244\274\322\311\024>n\204\343\273\360\365\202\275{\216\215\275d\306\001\274\302\326W\275\252\370\252<U?\200\275\311\277\376\274\377\'\005\275\271\027`>\335A\021=\335a\235\274P\262\232\275\306\026\033\275\332\327\255\275\250\212\361\275\232\204k\275\036\242\245<\315\364\231\274E\031\026>\274\n\311=\n\235\002>\227\367\243\274\244\310\267\275\355:D\276\235kf\276\217E\271\274\332n\374=\023\230\"\274\017\177\241=\235w2>X\355:>\205\2437;\nz\360\275`\025\246\276\357>\263\276\365\352\232<\225\235#>~C\263=\200\217\257=05\210>\\8/>\302in\273\226\023\r\276\3023\263\276\005\333\314\276l\217\003>\211\2573>84M=\200\333\332<M\335z>\360\022\210>kq\n\275x\321:\276\023\024\312\276\r\361\273\276f\331M>\002\224,>\014W\201=\255\274\365=\370\272\210>\322\n\">U#)\275\214\302F\276\030\222\366\276\344K\215\2769Z`>\021\213@>\351\0070=\207[\021>-\325;>\234\257^>(\251#\275\204$D\276\0329\367\276\340?P\276\273\224l>>q{>{\\v;\257\312\232=\325\302\024>T\271]>R\235\360\274E\033\276\2754K\t\2779F\305\275\372\200\\>tt\233>&\354\205=Z;\003\275\\\254@>\300;k<\233\366\201\275\257\032L>~\n\006\277T\350\344=\201;\231\276\373\343\255>\317\032#=np\273;}\314\215>D\353\261\275\2529\201\276N\234\031?\3252\271\276\205\2356>b\334\353\276\376\202\311=\224jZ\276\245\373\367=p\252\207>y\312\316<\027D\300\276S0\021?\370\271}\276=\016E>\210\335K\274\243\303\266\2754\277\316\276\363+\243>\372\317\037\275\214Y\267=C\262\257\276\357\2601>g\017\324\275r\266\324=1\017\215>J\231.\276]\235\224\276\260\367\322>BO8\276#\353\372=\207\323\334\275s+.\275s\002(\276\246\3015>WL\007>\342\010e\2768}t\276[\206\251>z\320\006\276\212\031\211>\324\222\340;;\327\300\275c[\227\275\tm8>V\"\014;\031\302v\276&\331W\276\302\032\230>7\277\244\275|<[>\363\306\264=\346\265\036\276<\3376=\351T#>H\234w\275\201O\247\276~\304-\276\226u<> \241k;Nlm>C\364\302=r\230*\276H\010\273\274\342\213 >\343v\006\2766_\311\276\221\236\300\275v\370A>\271\320\207=\261\313\231>\002p\">\200B\r\276\332\361:\275*=\355\274)\354\005\276\345\341\271\276^\332\355;|=4>\353\370\034>OAX>=\343r>\035\242\323\275B\271\227\275\003\273\273\275\003\273 \276-^\244\276\250\202\210=H,\241=\010.|>\2523\362=\007\204\227>\367l\232\275\331\216\362\275\342G\276\275\302T\"\276Y&\347\275\322K\353=\201\334y\275\234Ut>\217\024\370\274%\235%>\032\304?\275:\306b\275@\t^\275B?\364\275\0140\362=\277$\016\274KSm\275\301p\023>\215T\247\275\223\t\013\275*\020\255\274h\235!8!\364\255\273\237\210K\275\305\255U>D\345\216\275)\273\264\274\323\217\021=<n-\275\362\375\223\274\007\006\315\273N\373_;\313\257\220\272\nh\320\273\272C\177=\037p\024\275\3646\353\273}\'\265<\3167O\274R#\274\271\232\3015:8a\212\2705>\243\267\'$\241\271\231E&;\324\311N\273||\036\272xs\026;\032\374\204\272\303\2708\266\231*u\263\346Y\"\266@\323e\267-\327A\266l\230\353\266@O\243\264\376\232~:*\266\334\266\352=u\272a\305\302\267X\377\337\267\312\035_\267|!\314\272\305\375\005\274\226\3139\273h\221\033\271\215~\303<\247\265\333\271!\263.\274;\270\311\272M4\230\271\341\327\220\271\356t\237\273\005\315\364\274\266&\267\273a\032K\272\223\241\256=\361\207\"\273n\024\"\275Q\301~\274d\336\362\267\201\316\317\274wyk;\363\257f\275\275\301\231\274,\312\200\274\327\001\035>\214W\000<\352(\007\275\350k\213\275R\372\2449\034o\251\2752\354\007\275\211\222\253\275n\031<;F\354\035\275:\311Y>\324`\252;\221\233\256=\335(\004\275\347\304\363\274\353\231{\276\320\023!\276\236G\302\274\373\370x=2\'\346\273p\215\023>\231\216\244=\327\227W>T1\201=\231\024g\275\342\216\342\276X#\211\276^S\271=&=\034>\205t\233=\330rL=\005\321\335=\271\352g>\'SL=\'\202\244\275iC\r\277.\277\254\276\321\253H>4b\016><\026\013>\005\222\366=\034\345\026>\271e9>\223\330\033<q\374\361\275e\306\363\276\345<\245\276\206\364\226>\254z\334=\3752\342=L\\\013>g\233\316=\225]!>\205\252G\274\254\362\033\276[\206\366\276m\234\037\276\203\267u>/A\202=\377\340\347=#fT=\214*\275=?\237v>\315\201\t\273\223\007\207\276\340\'\376\276\336\032\224\274\304i\267>\314\234V>\036Ef=\314\305%\275\200\244\213\274\266\354Z>\'\271\323<\244\207\247\276W+\366\276?\201I\275b\213\371>\223\023\220>L\212\017>\222e)\276\013\227b<\203\206\227=t\203\005=\300\023\355\275\236Z\376\276\230?B=r\217\316>4p\245>\346m\036>\n\006\277\276\305\247\033>x\272\002\276\375_\014\276\363\245j>k\355\341\276\235\227\027>e\377\333\275\377\275\213>\241\236<=\215Z\345\276b\005\313>\245\016(=0o\331\276\367\3562?\223E\275\276\216\020\226><\323\216\276h\306\260<\276tg\2764\004:\276\"\000\200>\342\222^>\275I\014\277\235\364\001?\373\004\237\276\240\366:>R5\335=\215j\026\276\313Fo\276\t\2434>\016\250\027=v\361h>\002\352\363\276\341r\337=t\275r\276\221\033\001>\230`\242>qV\234\276\000\325\265\2750\301\256>\316Q\346\274x\332w>\300ij\276\300\245\240\273@\244d\276\260\'\350=u\033\014>\236\330\211\276\320\212\276\275\376\233\220><]4\275\364\\\251>j\302p\275\375\243\303\275)]\001\276\256*\n>\314e\210=\027\037\205\276\017\256\004\276\021^e>\224b\204\275\304`\236>\3755\303<K\006\033\276\023\006\226<\3500\206\272\267`)=\241\211\214\276U: \276:\224\211=\341\275\234=\277[\266>}5k<3\275\347\275:kc\274\3544\250\275\367\362\313;\002h\301\276\304^,\275\024c\271=K\376/>K*\261>\337\314\003>\344\303\237\275\304\216R\2755\\F\276\3411\234<\0306\376\276\006\376\327=\302u`=\264Xx>\333\302\211>\004\214\222>S)z\275\3570\007\276Wx!\276\237Z\377\274\204\356\006\277\362\226q>\227\322\336<\201\363]>@\\\022>;\373\251>E!\021\275\337\341>\276\275.\330\275\221u\243\275\312\261\330\276\200\037\222>\334\357\307\274\303XX>\355}\326<dIS>3\r\261\274{\006R\274\2421\035\275\"\223;\275TCy\276\306\003\350=$.\001\275*\021\023>\334\264\216\275\251\233\337:\022\250\036\274rT0=7lo9\215\3627\274\271\255 ;\256R\004\275.\253\007;\274\250%=\272u\026\275\255/\014\274\032J\215\273\354\354\377<y\274 \271B\023\243\273\224R\242<\025\003\034\275\302\022\203;\374\013C<\300&2\274_Wh\270\027\007\t:\211\311O;q\332\333\267,G\365\272K\365\031\272\346r\362\272G\017&;J\323\304\272\005\354\257\2719\224\216\263\014\266\01480\325\202\266\330\007\023\267\376\024\216\264\327\225\337\265tJ\004\266\212n\210\266](\335\266\273\016\322\266m\271\2109\246\375\247\266\305\021\\\267\323\220\233\272\3102\324\273,,\033\272\226\020\025\271[\370P<\005B\270\2704\336\223\273\333\037\232\272C\334\245\270\301Q\010\271Q&l\273Ah\237\274\037L\r\273\211du\271\270Ah=\217$]\272{\300\355\274B\232c\274\036\021\254:%\364\360\274\347I\264\273\213\313#\275\210\223\341\272\220\307b\274\202\212\331=y\3033;\273\356\301\273;\363\027\275q\017[\272A\271\004\276\363\030_\275j~\257\274\017\003\317<\006\'9\275\225\204\003>\024\362\347\2748*\'>\r\005\r<\320.\335\274\265{\251\276\314\205\021\276\t\n\345=\357\344\245=?\232\203<\241p\240=\232\312\246\274\001\tf>\240:\375=\346\371C\275\342\301\375\2764\264o\276\232\365v>a\220\230=\034\002\031>\365)\276<\376\323\037\275\376\210Q>e\351\023>x\344\217\275|\251\375\276\203$\220\276)\210\231>C\204\000>\376\371\354=\325R\022=in(\2756\032+>5\214\257=\322\027\247\275\004R\305\276\253\200G\276qQ\243>\2105\260=\330\023\321=\332\"+<~\"\216\275\027\002\003>\306\025w=\327\2442\276\220\320\222\276\212\034\255\275TX\232>5\220\345=\262Q\331=&\360\246\275,dI\275\220|\305=G\177\300=%L\273\2769LP\276>7\002\276\354\304\322>\273/z>`\276\022>\375\277/\276r*\352\275.s\266=6\233\212=\\e\327\276$1\001\276\372=\273\275\310\032\t?E\332\205>\343\320\031>\201\022\324\276c\274\210=\357\341\356\274$\356s\274\250I\033\276\336\003\007\276,\010\301=s\335\241>,\233\230>x\254\010>\031\222*\277\276\246d>\271\347\315\275\360\210\231\276\314\361\232>QR\224\275\265\032z>H\244\223\275\304\250=>7\200\023\275\272t/\277\2465\256>\350[\277=\302\376\371\276\355#!?\232\306\317\275\223\345D>5\210\276\275[8H\274\206\031\022\276\242\243\240\276%\333\334=D&c>\247\360\020\277\240\010\324>\276oo\276\250\316\002<\320~)>\350cb\276P\265U9/\244\026=a\203&>Uwo>\261P\375\276\004\235\263=\0363z\276L\245\241=\200#\207>\200\210\246\276\302\263B=M\216$>?\034\214=\030\332\266>\301\022\213\276!\005\270\274\247\030\033\276\265Q\323=\017\232w>\214vF\276\243\312\271\275\220\275\376=z\217\255\275a\340\260>\307\276\323\275\303\336E\276j\216\323\275\215l\313=\311\3335>\2545\377\275;\362 \276\256\n\370=\302\246\334:\354`\220>R\277\222\275\214;2\276HZ\204\275~\t\024\275Y_\r>\330!\323\275`\342\257\275\213\207\206=\013\3651=7\226\223>\327y\272\275Oh\360\275\214q\205\275\202][\276\253\357&>\333\212\364\275\033\371\330\274\306j\351=\312F\307=\263\321\204>(\005\303=<\237\232\275\355\034\214\275\300\331J\276\363/\334=E\320\212\276\322\177!>e\325M=P\242B:\021\206N>k\000\207>\252\312z\275\262\'\n\276\263(;\276\347~E=\271\230\241\276\223\'\241>bs)=\201\024];I\235\275<\250\260\250>j\266L\275\351\262\005\276\372\300\344\275\302\313\242\274%\301\257\276\363\377\271>\032\223\232<I\031\022=7:\274\275\202oA>\216\213\023\275\346\353B=\213\243(\275\005\2077\275\375\211^\276\223\365.>I~Q<L\006\374<b\202\344\275\200\311\223<o\026\205\274\333\'\357=\223H\201\273\220\177\005\273\332\007\022\275\351\010$\275\204\222I<\255\205o:):M\275CM\026\273f\303\270\273\217\251\225=\364\216\301\271\004\323\275\273\212\304\021\273\250\377\'\275{\365X:\310#\216\273,oH\274\202\272\352\271\353\2117\271C\022\246<N\304m\272\2612\273\273Y\344\236\273\212\352\272\273\260\033S\272\360\020\231\2720\372\003\272\233\215\'\270\303*\352\265\314\277>\267H\3063\272X\217\233\267\204A\375:\320\376\325\270\244\212\036\270,\0274\271\010Ib\272g\354\001\270L\311;\266\344\340\037\273\362&\017;C\214e\273U*\214\2717-\334\266\177\021\310;`8]\271~\276\357\272D\r\223\272X\333\3748\270S\367\272\236\377X\271\257\t#\274\023\207\222\272 ^\004\2714\274\367<\014\357\350\271\205\016~\274\016b\301\274\376=\030;\216c\273\274\341Q\221:\3363\000\274N\231\2349\305\313$\274\035\014a=\247X\326\273ThH<\336\377\372\274\034\224Q:\024\374\263\275@n\315\274U0\311=\365\235+<\301\354\232\275\0216@=n\031O\275\323.\350=\334\016\267=b[\377\274\355=\210\276by\347\275\r\271f>6\231z;\347\227\001<\n\020\'=\247\367\266\275d\227\007>5N#>\366\250X\275\355\302\216\276z\021T\276\375=\225>\262\346I\274~\022\001>CJ\373\274lq2\276)^7>\206\262c>g\224\242\275C\037H\276\255\237a\276`U\263>\324\034\354\273\202\225\356=\245,X\275#U\203\276\\\356\372=\360\026#>No\304\275\036\221\340\275\233\251>\276\216Z\250>8\365\245=\245\256\340=\345\317\311\275\361\255\177\276\026\207z=\357e\031>|\206Y\276KU\365\274\370Z\026\276\244?\222>\3250@>\356\242\037>\252\225O\276|\tV\276`\222\263<9\322\032>\024u\311\276H\234\315<\337\314&\276\370\"\247>\255$}>)\250G>f\332\234\276\206G\207\275}F\204\274\215\353\325=\247\003\321\276R\003\204=\256\206\002\276+\357\264>9H\010>\351\340\217>\246\231\001\277\220\331\036>D\023K\275\014\322p\275\031\212\237\275o\374u=\267}\305=\014\260N>T\007\037>\217)\322=\204\236(\277\210\203\204>\365:\243\275\343\363\265\276B\000\300>6\252*>sm\347=\277\327F\275\"\016\245=%\311\250\275\370\361\021\277\323\004\257>\346>\251\274\334r\007\277e\002\020?\346\360S=#v\327=_ro\275\324\310\200\275\345b>\275kou\276+\375T>\275b\025<\251\335\r\277\007\260\266>\326\330\370\275\234Y\256<J\034\013>\262\305:\276\206\251|=p5)\274O\245\026>\036%\025>\343\246\003\277\230\342\361<o\037\363\275\014O\036\274\033\031\263>\006\362t\276\213S\275=\216\005\235=\022\346\357\273\031s\256>\365\207m\276\305\200c\276S\211\017\276D\021e=4\346\320>\245\014N\276Q\316\025\276\007\2340>\230G\000\274fb\240>\202\246\276\275\350\355\232\276\335\344\246\275H\301Y=\203P\202>!\005\362\275\271h\010\2765-\230>\355\342.\275\271Y*>\304\251\241\275\344mg\276x\354\323\275\255\036\232\274+\335y>\233\243\327\275$7L\275\020u\256>\022p\241\275L\232\234=\013%\264\274_d\023\276 5\205\2758c\341\275_\310!>X\363\201\274i\220I<\207\037z>\232~)\276\202\342\334=\340\337\334=6\227\300\275\351\371\325\275}\266\206\275\256\356h=x\006\271\2759\351\035>\301\205;>\354\003*\2762\202\230<\226\001>>O\203\215\275\346#\357\275?\351\343\275r\035\371<\2147\351\275\366\272\223>\201\0142>3\002\032\276\023\203\357\275\033\371\221>\346aS\275r\255S\275,s\301\275L&>\274Ho&\276\365\313\230>\3568\312=\354\346\004\276\212\3608\276\316\355B>\305\254\366\274\313\030\247=\373\026\030\275\326\343;\275/\324\006\276\230\210\023>\032I\354<k\363\207\275\237\351\010\276SoG<\326\217}\274+\211\037>+\252.\274C:\216\274\256\327@\275o]\n\275u\r\344;\232\016=\274\273\335\037\275r&\336\272\353l\021\273\211\377\250=(\272\205\273\\\276\\\274-D\267\273\032=7\275\220\362\246\272\005\340\236\273&\270\226\273\377\305\202\270\000\0201\267\377\005&;\364H2\272B\317\"\272\342\375\213\271\227\260?\272`Z&\267KN\023\271q\2161\267\006.`\267\342\267\032\265\004\371y\266\323\312k\271\350\256\360\266L\332\":}4\014\270\346,\2606\r\362n\270\226%\226\271*\316\r\270/\026m\266\2515\264\273\342&\314;H\037P\267\360Pb\271\"\270b\266)]\251\267\020D\336\271\210m\223\267\364Yf\272\244\023e:\177\335\200\273A?\004<H\205\276:k=\243\272\026:\211\271\330\244\365;u\355\205\272\004\360,\274-\276\350\274\322\341\247:\217a\221<\314gs<\226/V<\033\237\207\273\372m\330\274rq\207<\032\244\367\273\310\000G;\304\036\261:\323\257\207\273$\303\243<I\207\010=\321\262\266=P;\212\274\255\036\351\275\330\336\312\2734%\\\275\214zP=\375\022 >\036\3741\275*DL\274<\217\331\274\232o=>\250\261\320\275\020\211\305\274k\377\024\275\031\310\024\276<\022H=D\261%>\342\274\256\275\270E\205<|\201\331\275@\243p>m\372\004\276\356\353\326=Q\255\023\275\016)a\276\026\353r=\244bm>]\312\321\275\3403\213<?PG\276\3743\243>\310\212\030\276;\220)>[\214\311\275\203>v\276f\016T=\202\216M>\0231\t\276\364\0055=\214\344\200\276*c\260>1C!\274\3652\027>Q\323S\276i\234C\276d\323f=v\nd>&\254x\276\374<_=\322\002b\276\374\252\221>+\030\345=\354\'7> q\205\276\254\204\323\275\336\200\314\274\277\320v>5\242\251\276^B<=]^+\276\240p_>\353\305\335=\361\204\222>\006\244\247\276O\326C\275\326\363\322\274\246>Z=\324\360k\276=o\005\273\016\370\204\275s^a>rF\305=\341\341\254>N\314\334\276J\031\013=\343\377O\274\353HS\276t\241R=\003\274<=;^\265=\241\244\013>9\246\326=\213-\363=\307\005\006\277K\372z>\023\275z\275\326O\374\276S\331\320>\t\023->g\267\034>\256\305\314\274\374\325\212\275\320\253\204<J\356\275\276\361\372\272>T\210\036\276\340]\026\277aZ\013?\212A\236=3\322\363=\035\241\201=\002-\204\276\365\205\361=4\034/\276\376\002\203>N\037%\276\000\002\021\277\314\205=>\240\273\2609\000~\326<\022\323\221>.\233\204\276^\304\336=\373\210\"=\336\326\263=:\365\275=\351$\334\276\234\257\265\275\252\340W<\207\336\223\2752\r\347>\304\221f\276\010\243\024\274kdp=\004\256\220;\013[\230>\244uF\276\217b\267\276\354\371\210\275:\317M\274\300>\303>\262m+\276\304;\306\275*\352\237>\024\233\246\275\376\r\221>\334\3174\275\227_\242\276.\356\357\275\367\227\264<H\366X>\245\205\300;\226\373\310\275\007\374\302>\234/\005\276\232$\260= \311t\274\244Tu\276\244a\235\275\276\251\373=\341\233.>m#\206\27561P\273\226l\252>JG_\276\242\342\005\274F_)=\201\314+\276^&\003\276\242\300)>P.A=|\240H\275#q\222=\351\245\242>\"\027\214\276%\370\314\274\033e\273=@\371\336\275\\\235\270\275\272\013\311=Q\014\024\274>h\300\274[Q\n>h\004\207>\211Tu\276\360I\360\275\252h6>- \243\275yU\356\275\303+|=\327\312\330;O\200\031\275N\375(>\270QP>4\3773\276\331nR\276\211Ej>\034\262Y\275\000|\255\274\241\243~<\214\257\002\275{4,\275+\253A>`\242\222=\341\350!\276EnK\276\252\305\022>\007\327\016\275\241E:>\346\233\220\274\277\221\320\275\035-F\275\343\010\314=\322\261\017<%c\325\275\340\273\001\276\201I\022;\317\372q\274Eq]>]\356\215\274bYA\275\311~\020\275#\312\370\274\200\037\"\274q\273\311\274\346\320\037\275\324\001N\273\0071\210\273\031\231\305=`W\255\2732\225 ;\3748\017\274,\225\\\275\205\347\037\273\274\231-\274\n\210/\274\211T9\272ZN\277\271\265\2021<\211vr\271\351\304_\272\260\262&\273\332\010s\273n\252\003\271\032\274\312\272 |E\27276\330\265\304\202\372\262\357\224O\262[O\365\265r\027\323\2664\371\210\270Y\205\302\263B=\3238{\217\214\266,3\263\267\372\036\267\267\033\314l7\025\213.\273\3549i;\024\245\307\266GV\354\2704\022\367\265x\277\247\271\260\361c\271\025\017q\271[\013\003\273\364\200\013:\237\356r\273.|\251<\276W0\273\027\370)\273\255\234~\272\330\273\014:\204\323\027\273\027\026\365\273\243u\351\274F\017\240\272\222z\201=\366\000M=\300*\220\274K\377\212;\331X*\2758\266\013\274\275m\357\273\330DQ\2748\022\256<T&\020\274\235\034\007>\330;\317=\r*\274\274\377%c\274J\177\014\276\373\256\247\274\300n\217\275RN\233<\304\273@>/O\203\275\216\021\013>m{\'=\265\335\201=\375\330\263\275bIU\275&\331~\275.\365!\276\203%\201\273\'\200W>\"\277\021\276\371>:>\344\022\246\275\031\257.>\200c\034\276s\364\276=f\303$\275\227\351<\276\252\207b\275\370\252\036>\273\216*\276uE\273=\316\224\037\276\266q\221>\3439\224\276\370\004a>\266yK\275\265\267\324\275\337\270y<\306\025S>GxC\276\275\232\313<\025\203\207\276\254f\247>\376\207\203\276\030\3127>\014\3502\276\03132=\006\222\331=E_c><1A\276D\344\223=\254\374f\276?mc>\301bO\276\003\374u>4\216r\276\271*\252=\234\356d<\362\203`>\362#\034\276\365U\257=7\221_\276:\3616=\353\\\006\276\374I\270>>I\243\276qi/=\356\225\214=\205\277,<1!\306\275\266\005\n>\324\010\342\275\036\326\331:\323\037\314\275z\311\317>\261\337\306\2761s\207=\301$\234=\244\271\236\276\030\274r<\226\313Z>FE\332;\305H\236=\203\336z\275\2436\254=}\037\215\276p\315\236>\243\350t\2755S\n\277\010\225\307>\261u\200>\273\024\242=8Z\333=\305\024,\276o\362Z=\310\032>\276]\272f>d\307X\276k\235\r\277B\222\372>\222\354\314=\374\3263\275K\245\222>\367\030\211\276<\215)>\245\335\324\275\303\231\231=L3\027\276\027%\361\276\0347,=j(&=\247\035\013\276+\347\340>p\357L\2765\361\346=\322Z\234=i\267\024=\230tt=[D\224\276l\203_\276eb\024>\270~\025\276\3416\312>\030t0\276oqf\275\342\r\254=\",\000=D\271h>\"\357\212\275\366\230\325\276Y\037\366=\rk\207\273\020.\227>p\376\266\275;8\t\276\253\317c>U\340\206\2750\321\017>\244\004\216<\377\350\251\276\nA5<c\206\021>Z\366;>\022\3414\2749\237,\274\272\261M>bY_\276l\003\210<\263\221\326<\332\327m\276\365\320\211<j\366J>\256\314\306=C\007\006\274\016\312\213=d\017c>\377\020\227\2769\006\276\275vj\261=\354\312\'\276\336\266\350\274h\272;>/t\236=YJ\243<\272cv=\355(G>r}\222\276\003\370\022\276\007\027\325=\234\303\342\275\207I\225=dBJ>\357\256\375<\306\234\330\273\236\243\037=$\231\032>f\206\206\276\023w\\\276/\257\n>\r\265\255\275M\335\267=\226\2602>rm\200\275L\262\343<\205\345G=x)O=\227|G\276\255\372<\276\272\230\r>Y\024\204\275\252\215\016>\247h\272=G^\272\275\247\326\007=\260f\247=\002\203e\274;\005\341\275\221\357P\276\247\223p=\324\252-\275\026f\207>\315\253\031<pE\302\275\315u\252\273\307\3540=\245\364\250\274\312\247\267\275\317\346\373\275\003\311\220\2743\367\312\274MU\243>\202\371\315\274H\255c\275,\026\003\275\036bi\275r\030\230\274\322\265R\275A\346\026\275\236\n-\274\366\273\005\274$\317\005>^z\266\273\024\367\217\274\263\005N\274\304\267J\275Ww\022\273\333L\215\2743\310\355\273\270G\247\272\326\322B\271!\305\206<A\315\302\271\274Ec\272\377\336\214\273\312Y\367\273\273%\355\270\260\341\277\272\234\n\253\271\000\000\000\000\000\000\000\000\000\000\000\000\000\000\000\000\000\000\000\000\000\000\000\000\000\000\000\000\000\000\000\000\000\000\000\000\000\000\000\000\237\030N\270\3412\0219\037\253\231\272<\223\335:!\230\244\266\264\376\354\270FP\233\267@w\247\267\371\t^\271\310\346z\271\327\005s\273\277\266\241\271\300k\\;\316\363\312<|;9\273\3157\233\273}\353\350\272V\241\214\272\373m!\273\201;8\274Xt\020\275\354\225U\273a\032\267=R\302\326=\303\204V\275#9\272;i-F\275\213S#\2744(\206\274\261\227\014\275\324\310\212<\261\301\223\274\271\237[>\304a#>^\325\205\275\265\336\253<\014\t+\276\n\220\231\274p\240\245\275\264\240}\275\360\2253>\346\337\333\275\374Jv>\262B\222=^\027D\275\311\326\260=\214\357\356\275Xzv\275\214(\032\276\324q\272\275V\316O>vaR\276\270MB>\t\253-\275X/N=\330\251\364=1\276\324<\032\360\350\275\213\344\004\276E\327\306\275\352g\'>\260:f\276^F\364=\273\234\277\275v\352\035>b\277\'\276\010\3477>\240\304\"\276C\235e<\023j-<\276\030\016>+pH\276z\251\255=\327\004W\276\227)l>#\323\212\276\257aC>p&D\276\003\307,>v\007`=5\025Q>\3103\002\276\255~\363=\242\017\301\276\002\207%>\352\212\214\276\344E^>\266\030o\276\022\250z>Ip\206=\374\314o>\351\005[\274;y?>q\231\341\276{H\354<\ra\233\276\345>\315>\032\204\247\276w%\345=g\233\371=\245\002\001\272\203]\007\275\027\241r>\323\371\275\276\247V\030\274\361\220\206\276\236 \303>J\227\210\276\365Eq>Z\363\267=\272\030\212\276\243Y\334=\340w\237>x\265\212\276\305@\246=\005\r\245\276\257\370&>3v\031\276\323\212\262>\320\231a:\212$\373\276\205\r\273>\357S\204>\234y_\276=\346\177>\'\341\236\276k\334\272=^S\275\274z\3032>wV\307\275\321\n\003\277\270\377\262>?s\265=82\200\276xx\330>^\314k\276$\256\337=\205j\215=Ch\341;\232\226[\275\204\263\260\276\251+\000\274\227\236\343=L\371D\276\312\256\310>\021\223\035\276\355\254+=\224\353s=BGh\275\346\364\032>z\305\337\275\325l\216\276\253{\311=\376.\277;\272\262\231>_\0040\275\007lg\275\273Mn;j\347\303<\226\026a=\0140\376<\007y\264\276\271\245\351<\335\302\025>\n\344\031><\352\313<`\347\366<\366\276\027=\372\377\376\275v4\354<&\2167<\035\265\220\276\376\t\014=\220\237\277=Z \335=}L\305=\036\177\367=\026\361\212=\357)3\276\034K\230\275\350P\r=4\235D\276\031\030W=,\001P>g8\243\274\265QP=w\370\333=\016\006\010=\340\203\032\276\303J\363\275\227[o=\301\323\007\276\261\244\210=\257F\022>\250\317\252\274`b\320=\226?A=\250\277\025=}\313\017\276\267g#\276\331\2202=K\274\301\275\217\337\347=\352\361d>\273\016\324\274\031~\005=\247\0255=\007\311-\274G9\022\276\n\265;\276\031\221\302=\240\001\225\275\207\2552>%({>\215\220\372\275\243\246\033\274\351hx=\374n3\275\253\376\004\276\200\332I\276x&K=\214I\204\2757\322M>\302t\370=F\356\316\275\263[]=\343s\024=\215\363V\275\000\230T\275=\313D\276\000\217F<0\2538\275\353\340\267>\255\272?\275\256\305\265\275Ef\t=\201Z\002\275\021\211\270\274\357\013b\275\304\272\352\275kCQ\274*\254\007\275\025\271\260>\347\3150\275(\025|\275\335\331\002\275\245\332p\275\016\240\365\273\010\303\213\2751\364\345\274n\221\255\273\374\367\246\273_@\237=\254\024\300\273>J=\274^\342\326\273\037\336\351\274\302;h;\004Sd\274\231\360\221\273h\260M;r\363\212\271`\014\327;\322c\237\271(\251V\273A#t\2725 b\273\317\326\221\271Rw\317\271<\tR\272 .8\267^\306\270\266\277Ws\266V-L\27135G\272\252\313\240\270\366\021\207\266_ET:\275\211\250\2702\363\2529\374\234A\267Me\2567h\230\252\270\323\240]9\313\231\253\265\313/4\270\303\204\230\266\036\215\0366\307\270\004\270\204X\200\270?{_\273Bn\345\271h\316\364\273\370>\364<\2778@\273e\222\247\273\260%\210\272\375\245;:*\237A\273\353\005\353\273J>U\275gA\207\273\2409\235=\007\2014>j_O\275f+\010\273\002=@\275\035\275\252\273\023u\032\275\014e^\275\233\032\266;\231\207\016\275\005[~>\006\371S>\235O\265\275C\215\203=\270\224\'\276F\257\"\275\260\202\336\275\353\377\267\275\214#\351=\226\234\007\276\356\276\243>\345\0320>\315\323\321\275k\'\033>o\244:\276\275)\302\275\n\326\311\275M\'\026\276\275r->\245\243\204\276)\333V>7@Z=L\331\255\275\256\323\237>\016U@\275\303|?\276\017?\377\274z\327\n\276S\022#>\014?\201\276@\346n>\206\336\260\275\276\222\246\274P\364\010>\233=\000>\007\301\\\276@\201B=O\224\376\275\254\2140>\233d\010\276\031\223\371=~\003\022\276\221\2009=\250\'\013\275\215]#>\035\325|\276O\317\033>]\270\301\275\2242i>\203=\027\275+\224\002>\317\366\233\276$\021\374;\022\037\020\276T\357A>\235A\221\276O\031l>\354\204\212\274&N\203>kh\017\275\303\340V>\024/\312\276\226g\007\276\346kL\276\253\264\226>\205-\226\276\345\202i>7\373\207=v\241M=\340\276\r;\367\030V>\004/\307\276\307@\333\275\373\000H\276\3770\265>\326\220V\276\030)\206>M\036\301<\351\206]\276\241\275\361=\n\316\222>\336\030\310\276\013j>=\333\300\016\276\364&\261>\250\362\363\275\370\\F>rM\000\276\2744\301\276w%Z>\361\020\213>n\341\256\276\264\210%>\275y\274\275\"^3>\3019\212=m\202\347<h\244\331\275\254z\267\2766Y0>Q\006\026>`\022q\276K\243x>\036\031\007\275\024c/=`\014\264=\342k\366\275\206\210`=\251\245H\276wN\262\275\216\027_=\200\271y:\351\002i>\336E\353\274U\033f=c\274\013\273s\227\226\275\324\233E=r\0303\275@tj\276=|\305=P;C>5h\024>\316\313W<T\006\005>\206\022\270\275\316\274\371\2752\205\271\275\320R\230<[~=\276\376H\370=\026\022P>\377/\252\275\'\236o=\315\3369>T\315\246\275\372(\007\276@\302\317\275@\017\321:\247\371\033\276?\227\223=\227\3463>\222\327\224\275ng\201;\250\016C>\r\351\235\275\345O\325\274l\324\354\275\230\035\2029\224\223\357\275\203\346B=Z\253F>\363\301\366\275\r\004\264=,\\\252=\234\016\216\275\267\274\352\274\313\230\236\275v\204\270\273|\242\221\275b\237$=\251;!>4\230\254\275\347\377\361= \353a=s\020\261\275\333\371\336\274\243*\305\275\371\245\246<Ay\206\275\205\356\326=\3141\222>\315?\340\275\364\3548=\375\333\315=}\324\016\276\306\277\302\275\375G\026\2763\325\212=\233i\226\275\024N=>\024\375\204>\223\3245\276\221\2513=\366\347[=4\371\t\276=>D\275\372\2044\276\350\234\220<F\024\213\275[\243\261>UP|=\272\027\357\275\'K\227=WE9;\356\323\376\275]\325\241\274c>2\276\341\252T\274\262\361\016\275[\242\317>D\361\243\275\036\266\231\275l\200\207=\255\337Y\275\337y\225\275\332FE\275\362F\301\275\231\3730\274Y]T\274\302Vs>\254\320\363\274\203\344V\275l\376\231\274\027\002\330\274\033\337^\274D\313N\275&i\267\274\3645T\273\310%?:9A\372<\007l\220\273\310\271\205\273\375\212\217\273\220-%\274\034\274\003;\371\243\276\273\366\362\247\272W\307\355\272\206y\232\266\"\274\"<[\\\t\271\203\034V\267r\203\000\273[c\274\273\022p\316\266\366\332\013\271\222\225\374\2708\210\271\260C\022\0257x%\267\266\310\255g\265!#\352\261/\261\341\262A\300\321\263j\233F\264\327\253\020\266\207\364\303\263\031t\232:\234\275\0275n6\300\271)|\r\271\022\242\244\272\246S\002\271}\0163\271rEj;&\313\023\271\214\306\'\273\260\022h\273r\261\034\272.p\034\274\023\332\021=\314\021\204\273\344.\306\2732\357\263\272L\270\205:\306B\230\273F?\340\2730E2\275\306\354\253\273\374\t!=\257\330T>\376\t\376\274\210b\022\274C\2339\275R\307[\274q\233c\275\304\3434\275=\033\\\274\213J-\2753iI>\300u\200>\266\334\264\275\273\316\224=_!\013\276\031/6\275\247D\333\275\266\323\265\275pE\230=\r\352 \276W\271l>\027}\205>\326\265\327\2750*1>A\347@\276\002\342\370\275\3579\010\275\271\324\010\276q\332)>z\331P\276&ib>\365\377\016>\352\0200\2765\355\216>\357\356\310\275\001\240N\276?\331$=qR.\276\004\013.>\"\020\023\276!\331~>\311.n=\377\363N\276u\3109>\345\020[=@R\200\276Q#\214=\210e<\276\204{\036>dl\215\275~?b>\216\324\240\272(9t\276\200.T>\2340\245=z<t\276,?\310=\2573[\276V\214Q>1\230$;\272\240]>\320\253g\275\354h\230\276\250]\277=\\\014\035>\377\354}\276D.2>*\377w\276\347\204\227>\300B\025\275\241\346h>\327\004*\276&Q\243\276\'|\200\274\361\220\220>oLn\276o\264;>\347r`\276,N]>\342\201\316;\025\035\201>\202\030p\2761\236\206\276\254\261\312;\206N\337>\356E=\276\334\n\030<\316\324y\276\266\3308=\017q&=\226\376o>@\374\216\276\215#b\276V\267@=`\035\317>\034\006s\275\274\032m<\222-h\276\217\365\000\276h\337\023>TVy>\254\033j\276\255\222\330\275<\300\233=[\005^>\331\333R=\216U\353\275\266\314 \276\353\330\022\276a\016\037=\214\031\361=\371:\273\275~\242\243<\204\017!=\367k,>X\351\303=h\377\033\276V\346\275\275\357\003\250\275\30223\275\231\021\315=Fp,=\r\364\367<c\004\n=\035\221B>r\325\224\275\263s_\275/\237\022\276\274\250\006\275\223c\251\274\250T\321=\325\303$>h\014\374\274\0141\225<\257\257V>X\257D\276\356\365\246\275~A\010\276\000t.6\326\224\n\275\353\027\365= nm>\261\267\362\275\332bT<\204Q1>o\357S\276\212}\001\275vB\026\276\\m\025\275\245\353\260\274\221\364\274=\007Ib>@\367\004\276t\275a=\"\360\006>\337\313T\276\236\230\007=\362\314\014\276\377\0251\275\301\207\202\274\270bB=\355\333L>\037\214\033\276\212o\230=\266m\340=\322\337,\276|n\243<(\235\222\275\036Q\2738\260(\323\274(\217\200=<`\036>\360\367\t\276d\016\347=\014~\343=\033\207s\276H\032\316<L\311\213\275\034\201\363<N5\027\275\007\232\007>\0249\203>zI\352\275=\273\247=\215\353\247=\347\213\205\276\326\270V\274!\332 \276L5M=\334GX\2754\\\207>\304B\010>\340\361@\276\322@\242=\243\242\273<\034\331M\276\341\371%=\321~\027\2769\316\223\272\262U>\275W\001\260>\304\345\034<\207\352\366\275\026\214\255=L\002=\275\302Y\010\2764\254\244<\007\300\342\275\230\346\204\274\036(\260\274\2666\235>\022\037\201\275\207\314\203\275\217_j=\377\033p\275R21\275{\024@\275\304SN\275\250!:\274M\236F\273#\3441>Hw\275\274\333~\275\274\005L%\274k{8\275\250\202\013\274C\034\032\275k^A\274jnB\273\035\225\211:\251\3140=t\301\217\273\306\214\275\272\262\377\322\273s\227\220\274n\\\231\272;\205\343\273\240iR\2730\363\341\271P*M7\217O\255;\224\301\332\270R\236\206\2649\212;\272&\243\203\273J]\265\264*_\006\270 !:\265\000\000\000\000\000\000\000\000\000\000\000\000\000\000\000\000\000\000\000\000\000\000\000\000\000\000\000\000\000\000\000\000\000\000\000\000\000\000\000\000\224\210B;\347Si\270\206\320Q\272\355m\250\271\272o\207\270y\n\377\270\235\r\335\271\006\377\3037c\231\204\271\322\002z\272a\327l\273Q\202O\273j\026\3749\311\'\331<{\257\006\273I\301P\273(s\313\272\213\352m\273\304n\204\273n:\274\273f~\037\275\020\2743\2745_K=\207m=>\312u\373\274C|`\273\357\315\004\275\010\227\313\274\377\242m\275\243\250\020\275\355\240\207\273i\305\007\275\276\200?>p]\206>\272\266\265\275\227\003\305<_\004\350\275\357u\230\275\205 \276\275\023\n\211\275\215\004\240=\274\005\317\275\031%[>;\016c>H\001\023\276,t7>\032_>\276:\344\003\276\020  \275\234\264\301\275\021Z\010>*\273v\275NY^>\027aV>\373\271]\276\022\267Z>S\0313\276]\177W\276\312)n=xT-\276\256\361\n>\201\304T\274\030W\217>\374\305\034>\2179\233\276\201\343\331=\320\373\004\275\371#}\276r?7>S:\204\276\346\256\370=\275u_=\330\021_>\233\307&>y\357\300\276V\277Q>3^\316<\255\300l\276\352d\252=%\026\206\276C8;>\003?d=\033\037Z>%\271\035>L\332\302\276\263\364?>\260\267\022>\320?t\276m^\247<\013\342\254\276\010\014\225>\354FV=\204\333$>\210\323\025<\224\006\262\276\323r\225=\n\375\222><\201b\276D\277\233=\220\363\302\276\263\267\240>\347\025R=\016DG>\217L\371\275\267\224o\276\020\002\023>\235\035\260>L\224H\276\316X\301\275O}\315\276\245\247`>G\262\377<M\226\375=\326=\\\276\225QV\276\370~\277=\345\322\321>\364\301\217\275\312\217\r\275\001}\262\276\353k\200=\264\302\312\273p\270N=\324y\367\275\003tt\276u\006\223=\305\003\265>u\016\244<\312\336\204\274\326\3154\276\371\324\340\273\334\362\201<\242\017\327<\254BL\274\000\376\355\275\'\215:\274\372\016\316>\036\240\225<\360\217\000\276\241\357B\276\221Y\361\273\tn\330\274]\n\355<0&\270<f\023\020\275\n4\225<\211;\240>\037\264\003\276\344\031\\\274r\260/\276NBi\275\301R\255=L\370<=w\264\351=K\237M\274T\273\254=(\364Q>\013\246X\276\\\313\r\276\355\356\352\275JMJ\275R\334\352=\372\357\361<\026\223\024>\344B\022\275:]\222=\224V\021>\376\331\203\276\367\242\363\274\023x\005\276\310\215\205\275\'\335\316=N\022\354=\020\221F>\305\377\333\275\264\034\325=\224\245\037>#(\235\276\252\252\245\274>p.\276\217\003l\275\035\326X=\253\025\031>\21266>\316\264\356\275\2505\271=\273$\261=3\353\207\276\350\352G\274\005\375\327\275@f\034\275\002g)<@\215\014>\036\321R>?\223\270\2758S\217= \251{=$o\243\276\364\311r=\027\363\305\275P$\241;8\304\323\274\006\254N>\273,\013>\376\214\232\275\325\331\352=\r\002\177\274jh\217\276\244A\234=\254\357\013\276\322%\202\273\206\227@\275=\350\217>h\353\222<\016\315\362\275\32701>\020\017\213\275\014\237N\276j\223\221=W\310\324\275\323\201\034\275w\022*\275\375\221\235>F\027\247\274\326\372\261\275\307\263\247=\321\rw\275\002\276\317\275\2764\005<#\245H\275\010d\323\274j\r\350\274B\036\200>\332\242?\275\2543\013\275-\312\331<\302\245C\275l\315\334\274\351\234l\275\331y\032\274DC\002\274N\276\314\273(\331\272=\007)q\274\311\224Z\2741\365N;h]\253\274\352J\355\273\270\341\335\274\014\365K;\332W \272\0170\022:a\245z<\266-\333\272\351\213\264\271\317\277\223\272\220\033\204\273\"H2\272\251;\253\273\330\302\r\273\007]\314\265\270\266^8f\236\373\267\376\261\332\266\020\205D\2669\235<8\211\201\243\265L\r\220\265\375\371\\\270\275\311\016\2665C>\262\335\374\3647\252\031\036\267\234\247\356\266Z\365\357\263\363u\204\264T\311\343\2648\316=\266\352\034\007\267\202S\205\265_\377l\267\000$C6|N\017\270\235UO9\2536\376\264:\034B\270\227\362^\266\252\277\356\267m\013\305\267\252\014S\270\360Y\215\273#\\\300\273\026H\000<\357\363\321<e\254\203\271\340c\254\273\340\274D\272\r\274\020\274\032Mc\273\360T\232\273\035\350\003\275\303s\360\2736XV=\213\225\366=zg\305\274\016\022\321;c\031\206\2744\035\366\274M&/\275\331r\327\274G\'\371\274\370\346><Ec\360=\005gE>\204\311r\275\325\031/=)\302\246\275#\356\215\275\034\300\227\2751\370L\275\\\222>=\314\272\243=\272\350\r>\355\000/>\000\323\313\275]M\035=^\373\031\276\304\375\316\2753\363G\275\326\274\230\275\226y\266=\277\035\320= \216\016>\314\273@>\002H@\276\213\256\332=?\262U\2767s\035\276L5\221=\030\032\025\276\313d\360=\323\330\343=\232\315\023>\356\323\r>S\314\202\276)\266\n>>\214\014\276Ee:\276\277\226\021>\022\203[\276\361G\212=\216\261\010>\335E\006>\014\240\353=9\205\202\276\3724+>H\212\007\275A\225+\276U\364D=?\333S\276\245\202\013>\321\273\210=(\211F>k7\007=\007\346\210\276H\364\n>\354\364{=g\034K\276\266\357A=\211\274U\276(\311i>a\341_=\030\335\003>\227nZ\274&ul\276\006\251\320=u\2352>\311\316?\276Y\010\014\274M\345}\276w\313\213>\351]\214\275\350<\214=\356\265\242\275(+\010\276\r\212\020>\303\010\215>n\263\020\276\257\001\351\274\023d\235\276\005w<>\010\344\346\275\251 \320<\224\235\320\275\323\022\002\276~n\001>\254\004\307>\302$\346\275g\025C\274\322m\204\276\331\260\253=o\336\017\276\333\021\270<\364\036\237\275\272U6\276\220\354\225=\220\030\347>+\345\265\275f\206*=\201\355?\276\263\356p<\000o\240\274>\266\313\273\331:S\275\030\240\343\275\307\317A=\257\354\334>\275\211\320\275\3469\356\273X\233H\276Zb{\274\253\262i<\373t\237\274\240\217\340\271f\225=\274\0064\206=\230\021\215>\343\346\350\275\204\344\272\274\331\0310\276\226j\014\275\005&\221=\311Gd=\230\305]=\337\371\003\275\350r\202=R\270C>I\222\016\276\036\274\307\275\244~\007\276r\254\200\275\365\332\332=\216\224\343=y_\266=\323u<\274\236M\221=\267j;>r\223`\276\215\236\210\275\210xM\276\3761\254\275N\226\361=\230(A>n8I>\225\034p\275\235[\010=\314C\347=\357Q\202\276\217\360\'\275\312$X\276R=\317\2759KG=\3073V>p\021k>\001\3266\273xCE=\263\022\256<\302y\214\276O\035\345\273\336\224/\276\254\357f\275\231\302r<{K\005>&Q\355=cn\360\273X\026\020>}L\311\274ai\220\276\236$\234=H\032\334\275\000\360\024\275\005\000\207\274\270\"K>$\r\024\273v\351\345\273F\212A>\024\274\205\275\306\030t\276\376\331*=k\242\201\275\177\235\022\275\354\370\217\275\312\211\211>\337]7\275h\204$\275B\367\020>\313\317^\275\035\216&\276%+*=m\3342\275\326\257\271\274%\251U\275\2323\206>\007\315\207\275\277\220\343\274{v\203=f\205\035\275\337\323\252\275\307,\002\275\033\305t\273\265\270x\274B\365\202\274z\373$>^L=\275\352\362\244\274\346\224\211<x5\305\274)\212\246\274\311IT\275\351\277\201<\214\0167\273\036\365\222\273H\250k=1\272\036\274\2376 \274\'\361\372;\336\366[\274\362\224\311\273\307\356\226\274\007x\351\271\264\007];\223N\344\272([\000<z6\355\272\237\203\276\2719T\"9\214\'\264\272\311\317\027\272\2234\025\273V\312R\273gZ\2475h\366b\2532b\273\264XW\021\264v\335k\257\035*\234\264/M\243\262@U\267\257t\030\361\264\211cI\261\033Q8\262\366T\3557\336(\031\267_2\347\266\260u\350\263CR\200\264\t\253\334\264\307\3377\266\003\344\002\267\346(\201\265\270\351`\265tt\r7>\277\202\266F\306\0337\377U\236\263\312\262]\266(\224\032\264x\\1\266&\037\232\266dJ\025\266Y7\233\27286\273\273\357\242\253;\\H\271<\264\257+\271\310\363q\273\373\245\234\270Q\374\376\273\372\253I\273\373#\312\273vJ\252\274I\276\263\273\314f\004=\277\214\250=\365\354\225\274\357{\027;\206|\276\273m\230\312\274\335\000\333\274\301 w\274\037\332\204\275\271M\361<\245\345\226=w\302\t>\362\037\017\275\021\367Y=p\313#\275\245]\027\275\213d\240\275{\254\022\275|\305p\274wB@>\031x\246=\220\231\r>\271l\204\275s\0073\274\204\355\275\275\376(\241\274Y\363\352\275\207\036\270\275\221\tC==OR>4\352\324=\221\200\025>\275@\335\275\224D$\275\215\n+\276\203H\001\275B0\263\274\001\223\t\2766\317\311=\364;\">~\243\324=\216n\262=Hg!\276\014\320Y\273\203\365E\276I\350\306;r~\246=\035_9\276\304t\017>z\305\345=\302\205\036>~\027Q\274@\2070\276/\315\222=\207\231?\276p\215!\275=\304;=\212>\347\275\326\344\n>\257\223j=\304\3342>YE\316<\304\271;\276\343c\314=hi\004\276\020k\317\275\2445+\274\270\251\213\275z*$>\351\3073\275\311\331\377=*\0216=\376;\311\275\324\t(=3\001l\2757.\267\275*\325\030\274\241\322\223\275\324\322Z>\3353\'\276\n\007\276=\234\257\356<~\355\214\275\323A\232=Ab\321\274\273\224\031\276\346\362\304=2\266\313\275\261D@>TC\200\276\260\322\315<:\311+\275\325*\313\275\037c(>\312\317\222=\226h\020\2766o&>\225\204\241\275\222\221`>\235\356u\276\370CS\275H\212o\275\026l\312\275u\316T>Fa\237=\035\260\026\276\364\031b>b\242\004\276Rl\001>\220j\264\275<S\301\275\330\344V\275/\001\204\275\301c\367=\3770&=\251v\255\275\275\341T>\030p\344\275\223\242\254=D\016\357<\312\233\357\275\363\375\n\274ac\244\274y\027\221=%Y\202=\3729\274\274`c\301=\240\0132\276\013=\017=\0216\307=9\337?\275v[\035=,\214\210\274\021g\325=\330\207\311<\373\267\312\275v\255\376<\n\026,\276\232\014\314\274mp#>\243\363\326<\211,\304=\240\271\370<\346\205\210=k\3034\275\324M\021\276\276\250*=8iV\276\374\305\277\275\261(\005>\277\307!>\340\276\001>U3|=\n\303\243=O\222\257\275\314qN\2762\215\023=\004cX\276\2513\342\275\007\221\366<\3568R>\224f\t>\232\203\013>i\325\344=\304\001\266\275\016Fc\276\014\024\256:^[J\276\220f\335\275\235\374\201\274p\000Z>\\\214\373<\0332\263=\003\\\002>\005\266w\275scs\276\266E\010=\226i\216\275+\263\220\275\356\212\\\275\207\307W>K\322{\275\030B\300=b\177\235=\204\002K\275C\335O\276F\210s=N\345\036\273\210\262\303\274\232~{\275\325\321R>\211^\013\275\303\206\255;D\236A=\017\303U\275\026\276\345\275V]G\274\2136\031=F2\236\273\343\276\002\275\203=\r>\256\335\"\275\223\\\360\274\'\244\031=\023\315\014\2755x\202\275f&\262\274\261\307M==\345\361\273\220\262\024\274\251\007\255=(\337\333\274:)t\274[+\206<\225\262\210\274\001\363\224\274E\214\355\274H\256\255<?\276y\272@\347\340\272\2151\345<\246\350\320\273m\025\365\273\0251\277;\232a\232\273R\200\020\274\361\355\003\274\216\266\214;\340\204\2739t\273$:Y,\247\272;#\307\270\314\245\2739\275f\364:9N,\271\341\3749\271\264U2\272\274\370U\272\326z\0326\376\200\321\253.\370,\265>)\206\264\274\270\331\257\340&\020\265g\275\026\263\000;)\260\272\214^\265\272\345\271\261\000\000\000\000\000\000\000\000\000\000\000\000\000\000\000\000\000\000\000\000\000\000\000\000\000\000\000\000\000\000\000\000\000\000\000\000\000\000\000\000\000\000\000\000\000\000\000\000\000\000\000\000\000\000\000\000\000\000\000\000\000\000\000\000\000\000\000\000\000\000\000\000\000\000\000\000\000\000\000\000\336\312\203\271C\240{\270\315\255\262\271\222-:<\3535\223\270\333\250,\272\313\223\230\267\330s\276\273\253\270\251\272\240?;\273\006\361\020\274Ym\020\274\351\017\002:/\tz=\200\250\253\27368\226;\200\256@\273\333\332|\274>b\236\274S\310\264\273Rl#\275\324\334\022<\300i\002\274\355\252\371=8N}\274j\023\020=\263\214K\274\212k\263<(\243\237\275dR\014\275\217+M\275\344I\376=\212\323\006\275\266\256%>\317A\004\275\201\214#=\213\367\354\274/r\204=\"\321=\276\037\276y\275(\251\263\274r\2708>l\267l\275\3531C>\215%]\275N\322M\274\020Y\177\275\250\033\003>\003^K\276s\020\274\275\340:,=*\032\000>6\303G\275_6&>Xk\242\275\253\2173\275\240\246\377\275=\252*>\213\214\350\275\337\312\257\275\013\027\260=}\315\004=\306H7\274\300gi=4\t\246\275j\361G=\337)<\276\001\247\203<<[F=\036\335O\274\272~\033>(\027\177\274\222\251U<Y[!=Q\226\202\275\366\010\316=\303\255j\276^&\316;\035\037\021=\263\014\034\275q\364M>\227\204\253\275\2345\251\274\366\245\037=25\206\274\356\006\027>\210\274\212\276\356\275)\274\022,\264;\336\346\023<\262\302\177>\325\213\371\275 \333\271<\226:\255=\267\\\203\274?\037\342=js\213\276L\t\304\275\010\330\275=b\350]\275\262.\200>d\261\350\275\241\001\"\274\\5)<\254\336\245\275\037\220\353=\227\212b\276\003K\352\275V\315d>\322\267q\275\231Ph>\336i\024\276l%\307\275\260\333\311<\325\332c\275=\177\301=\242S>\276\371\206\265\275M7\246>\323_\311\275#e9>\3123\341\2755\247\356\275B\255.\275\246\211\272\274G\325\313=\304\347\035\276 \323\2709d\326\215>e\016\345\275\007\357\267=v\254\312<\2440\004\276K\2243\274\325]3\274\002\020p=\0174\024\276\311m\020=G?\205>k\0271\276\302[\314\273\376\263\247=\245+\260\275\352[N\275\210\334\023=8\024\322=oc\037\276\372\003\240\274\016\213|>\221\362\030\276\002\353^\275v\322\021>D\267\327\274A-|=\266qm=:\265\364<a\031\023\276\026LD\275\330\264\370=EM\020\2765^\r\276\341\2312=\3015\340=\016A\273=\273\276\025>\373\3257\274f\300\314\275\330m\t\276\365\345\314=\354\323\333\275&\201\026\276\200\356\212\272\225\351(>\024\026\223\274\277\202\">O\373 =\205S\206\275I\326:\276\206\314\260=\370]\020\275\022D\362\275^\036\026\275\214}\364=\226$0\275\330#\020>+\242h=\327hL\275\005\212C\276\334\007\245=\260\037)=\226#\213\275w\367K\275$\232\016>\0011M\275-^\277=\267\346\331\273&#8\275\236\315 \276~4\334<\203c\357=\027\006\002\2757s(\275\355<\361=\\\234N\275\331\347\244:\320\332I;0q\346\274Dz\253\275\322\346/\274\332~\375=\343mR\274\241\252\322\2743\265\207=\003\"\310\274\273\324\262\274\002\200\261<{\317\206\274&|m\275&x\364\272\276\344\225=\245\366\n\274:\306\235\273\032\354H=j\207F\274\201\350\214\274\315\360B<9@\010\274\240\360\242\274\363\363|\274JS\317<xB%\272\004\r\3329)_\256<\236\376u\273\316\371)\272\262\014\331:\021\320\002\273\337\354\034\274~<\300\273l\334g\272A+\314\266\247\232\017;\313\322\276\272&^\31795\031\3149\352\271\211:}\216\340\270\n\031\230\270\201\347\353\2728x\031\272\000\000\000\000\000\000\000\000\000\000\000\000\000\000\000\000\000\000\000\000\000\000\000\000\000\000\000\000\000\000\000\000\000\000\000\000\000\000\000\000\000\000\000\000\000\000\000\000\000\000\000\000\000\000\000\000\000\000\000\000\000\000\000\000\000\000\000\000\000\000\000\000\000\000\000\000\000\000\000\000\000\000\000\000\000\000\000\000\000\000\000\000\000\000\000\000\000\000\000\000\000\000\000\000\000\000\000\000\000\000\000\000\000\000\000\000\000\000\000\000\351o(\272h\007\200\267\372%\035\272\037I\200;\024\310\276\267\241#\276\271\235\371\377\266\227\366\273\272=\223E\271\343X(\272j_\365\272\264\355\345\273&\232]\274\024\021\337<\216\351W\272@\221\222;\337f#\272\361\250\001<.\3274\274\020\225\232\273\3642\355\273u[R\274\377\345\n\275\335\301\223=\331\221\355\273T\202\202\273\010\252\031\273,\010u=u\342}\275\'\217\036\273\276\312\275\274\003\256\243<\344\304\237\275\017o\356=\354\322\211\2744\nQ\274\316@\022\274\372\236\023>/\240\026\2765\330\313;x\375\021\275\003\016\t=z\207\014\276\366\251T>Hs;\275\235p\\\274Pu\237\274qwR>\244\200T\276\034PK<\033q\201\275QF\206\274\347g-\276(\343|>q\214m\275\357\020\252<\326\370\"\275\261\003Z>\325\353?\276r5[=\322%X\275\307\205\244\275\211\224\"\276U_G>!\342c\275\262J\006=%\203\224\275\366@:>\340\331k\275\354\274\213=Y3d\275AP\007\276\343:\032\276\353\364N>\256\364\031\275ps\372=\361\t\332\275 m\021>Z\0359\273\033\027\233<v\3379\275Oa>\276\311\235)\276z\250|>Ah\316\274%R\342=\010o\013\276\200\341\002>c\001A=g\374\325<\223\031\026\275\323\025a\276C#\355\275\352\352~>\206\236\231\274O\303\007>!i1\276\366\314\241=\003\032\370=\232\266\216\274\336[\013=3\206a\276]\342\205\275_\037R>7\'\302\275\303\266#>\372i3\276q\331\304=u>\010>\310\306\224\275\004\253\304<#b}\276\257\347r\275\340\rr>@9\342\275\3168K>\277\3046\276C\344\373=\252\373\324=C\235\270\275\001\274\232\274w7a\276\377\204\022\274\201\203E>J\256m\275F\0339>2\342(\276\221\217\001>|\001\356=\006*\025\276\206[\247\275\210(+\276\311\327\"\275\331/\343=\324\005\256\275\r1#>K!\036\276\027K\005>\013E8>\351\242V\275l\377\343\275k\303\026\276\210\366.\275d\247\352=\032\356\374\274\352\327\255=R\360\372\275{\366\242=\346\333Q>\230\000\360\274\312+\000\276\236\014?\275\324\203\265\273\362\2018=k\371\'\275\355\205\232=\312~\302\275\267\316\035=KZ\254=\032\251\217=\305/\002\276\314\312\003\274*_!<\213\273\235\275\"(\240;K3\207=\221\246\215\275\'~:\275\003-\371=V\353\376=d\210\344\275\237\3231\273\032D\n\275\016\367\250\275\370\337\201=\264y\230<Q\346k\275\320\004\236\275=\270\r>\251\\\024>\260\t\254\275\022,4\274\207\2359\274\304(h\275\336dX=\037\334\017\273YW\032\275G\310\266\275\000\177\023=\n,P>\317\300b\275\300\271\006\274\266\246\307<\306\271\001\275\323\266\342<|\"8\274v\350\345\274\213\307\267\275\317\221q\274\257z?>\325|\315\274\240\310d\274!\334;<z#\244\274<\333\306;q\267\250<,0\202\274\252Z\204\275\332\326\302\274EC\000>\3311\032\274\353\256\350\273E\004^<6\213\034\274\230\004\223\273\217\207\264<\366\204\360\273o\234\\\275\321=Q\274\262.\215=6h\010\273/V\005\273\365\2600=rK\340\273\331 ?\274\213\240R<{\254\352\272\320\003\314\274\352n\035\274\241w@;\214}\"\271-\337\222:\007\377\302<\254\367\312\272Uy\370:\r\224\032\273a,<\271\326!/\274st\210\273\330\034\375\273T*)\264\020\237{94M[;G\230\266\266|\232\334\267\373\260)\270\202jQ\267\250[\266\265\314\026\007\272R\233C\273\000\000\000\000\000\000\000\000\000\000\000\000\000\000\000\000\000\000\000\000\000\000\000\000\000\000\000\000\000\000\000\000\000\000\000\000\000\000\000\000\000\000\000\000\000\000\000\000\000\000\000\000\000\000\000\000\000\000\000\000\000\000\000\000\000\000\000\000\000\000\000\000\000\000\000\000\000\000\000\000\000\000\000\000\000\000\000\000\000\000\000\000\000\000\000\000\000\000\000\000\000\000\000\000\000\000\000\000\000\000\000\000\000\000\000\000\000\000\000\000>\236\376\266\273\202\310\263\366f\016\267\nY\3409\303\3555\2671\307\003\266\261u}\264\020J\023\272E\352\035\270}\222R9\022\037\305\2700\351\036\272\014\255\242\273^tO\273=\022\204\270XQ\274;\013\003I\270\017\251\377;#_\025\273T\237\030\273Lv\257\272(_\014\274k<\206\274\233b\276;\22794\273\006\"\262;\243\327\310\271N\367)=\311\222\363\274\351C\322;p\374\270\273g\366\232\274>\344\356\274\370\002\360<\000\202\262\274\274\234@\274q}\311\272\023\211\207=J!\201\275\366\357f=\306\212\264\274\367N\000\275\311 5\275N\236\214=\340\023?\275Mz\236\274}r\255\273\274\023\335=\247\363\245\275\342\033\226=\327\360$\275q\246Q\275\212j\234\275\371(\362=\361p\243\275\340\352\231\274tM\033\274\254\253\032>\374\177\326\275C\013\344=\377\356\205\275\npq\275g\r\375\275n\240C>\267\371\006\276\276\002v\2741\254\250\274|tp>\021d\r\276\305\230\002>H\331\322\275\363\223\303\275&\'\005\276#\350k>R}\013\276\350\326\032=\364\342\343\274\224\251v>(n\007\276|\374\354=oG\016\276\001\001\"\276\3466\342\275\243A\217>Cz\001\276\371\027s=\013\251\372\274\375\302L>a\211\304\275f\327\370=\254\361\035\276\200\327\030\276\212\235\333\275\220\r\224>\033\361@\276\034\312\326=\311\341\020\2756\202\207>\217\377\306\275;y\225=\353\2727\276\351\221\002\276\t\230\277\275\'(\233>\200\361z\276\226b\340=\243\244!\275j^\201>\016\367\370\275\220\260\020>U\361(\276\2238\024\276\201\014\246\275\305\200x>\022\326X\276zQ\356=o\200[\275\025\201o>\245\254\234\275\023\022\017>\321\177\036\276\3153\031\276\256\333T\275\321\343\'>\027\260\\\276\270\313\203=\333zY\275\211\236\203>\250\333\217<A\356\371=Q}\017\276X\344\024\276\310\210\024\275f\203\217=\016\017c\276\301\370\264=f\021P\275\375bw>\305\343\256=|\010\337=\"\230\354\275\357z\337\275q\021+\275W\326\341<\351is\276^T\271=\226\2450\275v\352?>\033#\224=9\200->\223\207\330\275S\242j\275\252\272=\275\2464V\274\314)\202\276\2335\227=\211\303\006\275=\213\023>$\263n=\373\357n>\262\025\246\275\334\034\253\274L1\211\275\315\235\236\2749\342H\276w*\272<\224\200\314\274\350\034\304=\2745\372<PY\205>5,U\2757\372\203\274\275\034\240\275\257\031\221\272\032a\017\276\376*8<j\270\242\274\304p\301;\341\365\001<\307\202\220>/\005&\275\322\325\343\273\032\374E\275H\262\205\274\226\300\234\275\235G\244;\035\344F\274\217\004I\275\252h\305\273\001w\200>X\335\361\274d\016/\273\323\024\022\275\324j\261\274?\003C\275\366\267\300<\311\342\274\273GB!\275\374\300n\274\374w1>\251\241H\2746E\333\272\223&\306\274|i\n\274sX\317\274\036\344\t=\357\331X\273u\214\241\274=\215G\274\300W\226=BIo\273\355k\364\271\344\321t\274\204s\'\273N\237I\274E\370\313<\303\264\025\273\307\366s\274\250\'(\273\212\240\353<\317\027{\272\0259\374\267c\367*\273}\272t\271o\033\022\274\035\220`<\301\t\037\272\361\246\261\272n\t/\272\362\r\333:\274z\016\264\306\254\241\265&\260B;\021\277\007\271\212\020)\271\2516\204\266\001\331\002\267q\203e\271\332\030\344\271t\354\003\273\240\225\273\263T\376\300\265\225\363h;\tj\260\265\336\"\351\267\377\272\r\266\036\366\026\267\351\275\031\265\371\230\265\271\212zO\273\000\000\000\000\000\000\000\000\000\000\000\000\000\000\000\000\000\000\000\000\000\000\000\000\000\000\000\000\000\000\000\000\000\000\000\000\000\000\000\000\000\000\000\000\000\000\000\000\000\000\000\000\000\000\000\000\000\000\000\000\000\000\000\000\000\000\000\000\000\000\000\000\000\000\000\000\000\000\000\000\000\000\000\000\000\000\000\000\000\000\000\000\000\000\000\000\000\000\000\000\000\000\000\000\000\000\000\000\000\000\000\000\000\000\000\000\000\000\000\000\000\000\000\000\000\000\000\000\000\000\000\000\000\000\000\000\000\000\000\000\000\000\000\000\000\000\000\000\000\000\000\000\000\000\000\000\000\000\000\000\000\000\000\000\000\000\000\000\000\000\000\000\000\000\000\000\000\000\000\000\000\000\000\000\000\000\000\000\000\000\000\000\000\000\000\000\000\000\000\000\200\010\343\270\243\303\227\271i\262\322\271\226\255-9P.\314\272\022;\206\272D\026\231\267\232\300\263\273\233,\226\273^\363Y<\374\357\332\272\320\333\253\272\031\301\313\272Ik\030;\330\022\356\273\316\345I\273r\202\361\270C\'\321\273\274\227A\274\013\344\374<Q\271\260\273(\3403\273\326\245\215\273p\244o;\035\322\245\2749\024\351\273\324\005\037\272\265\227\000<&\210\230\274v\265B=h\355Q\274{\327\232\273\003\237\375\273+\303\003<(_\024\275\002\227\210\274\002A\355\272:0\035=\301\333|\274\332\264H=\230\364\242\274}A\347\273j\356\001\274\267s\234;\006\217\212\275\323\032\274\274\367\177b\273\272u\217=\362\313\206\274\320\216\220=w\004\010\275\231j=\274\305M\037\274\325|\267:D$\336\275L\324\225\274\330\022\243\2731=\276=P\372\003\275\343E\376=g\262\376\274k-\274\274r\021<\274\004\376\303\272\323~\364\275\030\335\177\273\032\223\274\273\337\221\342=\2518P\275\305\215\013>\242u\364\274\177\335\270\274`4\225\274\027\371\304\273b\010\023\276\322\035w<Y.\331\273}\301\006>\263\225Y\275\243|\010>M\207\343\274\370I\347\274<\025v\274\326\255\210\274Ed\'\276|y\033<\010_\010\274\036\303\335=\217\002g\275\355\342J>\327V\032\275I\3414\275\361\000\230\274\265\024\212\274\302\253.\276\366\343\213\272\352\0371\274\304|*>\371\"p\275>rD>\210\033=\275\327&\036\275\305\020\201\274m\264\342\274\016\003M\276@\216Y\274L\3771\274\244\253G>\247\245o\275\371B]>OD%\275\317\320\320\274\206+\205\274\367U\337\274\277(>\276\335\023\343:\325m#\274F\241N>N\316^\2751\247\037>\"+\372\274\021S\206\274\346%\227\274J\021r\274\306\2770\276\345\201\001\274\233\257\033\274B\355)>\213\214,\275O\336\025>\303\017\335\274g\320\005\274i\200\246\274@\267\"\274\240\210\037\276\350C\"\274\334\200\n\274y\006\033>\262L\345\274%\345\355=\230}\230\274\035\007\320\273\217\340j\274\225n\336\273P\241\t\276\204\014\234\274\260\237\274\273\246\232\341=>\205\211\274H9\345=\216\350\347\273\003\002b\273T\207\016\274B)\251\273\224\224\272\275\302 0\274\224\204\204\273~\004+=\204\361e\274\372\016\322=\301\256*\274\\\271\311\272\332\260\347\273\205\327\020\274\243\3313\275n\373\t;\177\3079\273\013\335\256\273\244\340#\274\325\347\263=\263\316?\274\316\327t\272O\240\260\273P\263\243\273\204\353\241\274d\005\203;\267\200\255\272\374\'\022\273\304!\262\273V\271C=\367M\271\273\330OB\271\274\234\275\272$SV\271\3579\014\274\321R\022;\204\353\232\271\352\374\017<\013l\204\272\216\224\317;\007\272\002\272\327\031\376\2669\nB\270{>]\270 \023\327\271M\245\353\266\270Eq\270\364@\362\272\334\357\002\271z\027H;V\363\320\266\376\021\216\263R\3769\266\356\332\003\267w\302\n\272%\304:\267:k4\2678\333.\270\272\3766\267\244\270\":\262)2\270\206\036\203\270\005PV\271\302\241}\270\271 \322\270\276\335Y\270\2076l\270\372\352N:\266\235\010\271OM\251\270\000\000\000\000\000\000\000\000\000\000\000\000\000\000\000\000\000\000\000\000\000\000\000\000\000\000\000\000\000\000\000\000\000\000\000\000\000\000\000\000\000\000\000\000\000\000\000\000\000\000\000\000\000\000\000\000\000\000\000\000\000\000\000\000\000\000\000\000\000\000\000\000\000\000\000\000\000\000\000\000\000\000\000\000\000\000\000\000\000\000\000\000\000\000\000\000\000\000\000\000\000\000\000\000\000\000\000\000\000\000\000\000\000\000\000\000\000\000\000\000\000\000\000\000\000\000\000\000\000\000\000\000\000\000\000\000\000\000\000\000\000\000\000\000\000\000\000\000\000\000\000\000\000\000\000\000\000\000\000\000\000\000\000\000\000\000\000\000\000\000\000\000\000\000\000\000\000\000\000\000\000\000\000\000\000\000\000\000\000\000\000\000\000\000\000\000\000\000\000\000\000\000\000\000\000\000\000\000\000\000\000\000\000\000\000\000\000\000\000\000\000\000\000\000\000\000\000\000\000\000\000\000\000\000\000\000\000\000\000\000\003\345\017\266\327s-\267,Y\351\265T\343\206\265\002\352\321\265\227\024S\265`\244\007\264t\241\3478\212\351t\270\231\030\020\270\342\247\017\270\271\351\332\267\310\021\252\2666\035_\266\032\203\317\266\332?(\267\226\267,\265\004B\2669\375@\035\271\211\003\353\270oda\270FC\314\267\371\222\207\267\363S\032\267w&?\272@\351\274\267\262~)\2675a\023:\26471\271\244}\3679W\317\312\270\3629+\267@\024!\270\352\314\327\267*.\210\273\002\205*\271\374\007`\270\3605\334:\ne:\271\302EG;\221\226\250\271\334U6\267uw#\270q&9\270\335k\242\273\t,\365\271\t\035X\270\365,\264;k-\213\271]\224,:\375\2305\272\025Y\343\267\236\241\250\270\257\nk\271>\371|\273.\010\031\272\334$&\270\356\251\265;@u\341\271[\212\3169\367\335g\272+@\260\272\275MJ\272\335\020\242\272Y\222:\274\311\030o:\210[\212\271\375\322\221<\026\264\211\273\352\244\264:_\n\270\272\372\262\337\271\0234\001\272\205\376\203\272R\n\007\274\250\240S;\233^\223\271\033c.<\364\353\347\272P\320\202\271\333\306\373\272E\241o\272\3524\376\271.\247\267\272\365\231K\274\262\023\033;~,\335\2719\005W<>\252\t\273\205\372\210;\223+^\273J\200\215\272\324\205F\272\355+\035\273\334\342>\274|\032\315\272\350\034A\272B\n(=(\313\037\273\360W\213\274O\024\334\273Z\276}\272Z\2239\272jss\273w\222\303\274U\366\257\273 U\277\272\327\357^=\231\274\204\273.\364\367\273\364\243\343\273\273\005+\27240L\272\263_z\273\215\347d\274k\270\233\273\177\254\320\272\356\337_=\204o\\\273\242\326\231\274\350\255\212\273\212)\300\271\035^V\272\253c\177\273\251\263h\274\200Wi\273G@\210\272\302\256G=4\032\n\273\355\305\227\2745\013-\273\231\306g\272\224\352J\272\001\307H\273\233\272N\274\351\342Z\273\360\212O\272\3526N=6Q\n\273\332\235\305\274\211\001\034\273\330\"\020\2731\243\r\272\241g\n\273\271\341o\274o\230S\273_\363\030\272H\030O=\220u\014\273\2617\272\274b\236\226\272\324\345^\270\005\t\277\270\300\360\214\272\373\031\333\273\327\353\354\272\177\233\177\271\332Q\276<\355G\231\272\360\2023\274\r\020\n\273\021k\214\267\355\352\026\272\266H\360\271\227U\013\273\370\371\307\272\017\324\242\270\317>\322;\212^\201\2720\017\277:\337\220\036\273W\322\207\267kO\322\271\372VG\271\3361;\272\003\3049\272g\320u\270iW\206:\276\020\003\272\212\206\202;\\|\311\273\3323%\270r\325\226\272\354n\034\271\216l\231\272\023\375o\272\\\334\013\271q\342\334;\254b\344\271\364\371^;\346A\271\272VT\024\267p\334\'\2708\245\315\267s\300\215\271t\222Y\271\234U\376\267!\023.;&\207\275\270\t\244\025\272\000\000\000\000\000\000\000\000\000\000\000\000\000\000\000\000\000\000\000\000\000\000\000\000\000\000\000\000\000\000\000\000\000\000\000\000\000\000\000\000\000\000\000\000\000\000\000\000\000\000\000\000\000\000\000\000\000\000\000\000\000\000\000\000\000\000\000\000\000\000\000\000\000\000\000\000\000\000\000\000\000\000\000\000\000\000\000\000\000\000\000\000\000\000\000\000\000\000\000\000\000\000\000\000\000\000\000\000\000\000\000\000\000\000\000\000\000\000\000\000\000\000\000\000\000\000\000\000\000\000\000\000\000\000\000\000\000\000\000\000\000\000\000\000\000\000\000\000\000\000\000\000\000\000\000\000\000\000\000\000"
      }
    }
  }
}
node {
  name: "Variable/read"
  op: "Identity"
  input: "Variable"
  attr {
    key: "T"
    value {
      type: DT_FLOAT
    }
  }
  attr {
    key: "_class"
    value {
      list {
        s: "loc:@Variable"
      }
    }
  }
}
node {
  name: "Variable_1"
  op: "Const"
  attr {
    key: "dtype"
    value {
      type: DT_FLOAT
    }
  }
  attr {
    key: "value"
    value {
      tensor {
        dtype: DT_FLOAT
        tensor_shape {
          dim {
            size: 10
          }
        }
        tensor_content: "\177\341\311\276[+\254>\205I\347=\373\363\215\276\312\000\021=\"\343\247?\024\330\264\275\222\005\037?f\024\266\2771\260p\276"
      }
    }
  }
}
node {
  name: "Variable_1/read"
  op: "Identity"
  input: "Variable_1"
  attr {
    key: "T"
    value {
      type: DT_FLOAT
    }
  }
  attr {
    key: "_class"
    value {
      list {
        s: "loc:@Variable_1"
      }
    }
  }
}
node {
  name: "MatMul"
  op: "MatMul"
  input: "x"
  input: "Variable/read"
  attr {
    key: "T"
    value {
      type: DT_FLOAT
    }
  }
  attr {
    key: "transpose_a"
    value {
      b: false
    }
  }
  attr {
    key: "transpose_b"
    value {
      b: false
    }
  }
}
node {
  name: "add"
  op: "AddV2"
  input: "MatMul"
  input: "Variable_1/read"
  attr {
    key: "T"
    value {
      type: DT_FLOAT
    }
  }
}
node {
  name: "y"
  op: "Softmax"
  input: "add"
  attr {
    key: "T"
    value {
      type: DT_FLOAT
    }
  }
}
node {
  name: "y_"
  op: "Placeholder"
  attr {
    key: "dtype"
    value {
      type: DT_FLOAT
    }
  }
  attr {
    key: "shape"
    value {
      shape {
        dim {
          size: -1
        }
        dim {
          size: 10
        }
      }
    }
  }
}
node {
  name: "ArgMax/dimension"
  op: "Const"
  attr {
    key: "dtype"
    value {
      type: DT_INT32
    }
  }
  attr {
    key: "value"
    value {
      tensor {
        dtype: DT_INT32
        tensor_shape {
        }
        int_val: 1
      }
    }
  }
}
node {
  name: "ArgMax"
  op: "ArgMax"
  input: "y"
  input: "ArgMax/dimension"
  attr {
    key: "T"
    value {
      type: DT_FLOAT
    }
  }
  attr {
    key: "Tidx"
    value {
      type: DT_INT32
    }
  }
  attr {
    key: "output_type"
    value {
      type: DT_INT64
    }
  }
}
node {
  name: "ArgMax_1/dimension"
  op: "Const"
  attr {
    key: "dtype"
    value {
      type: DT_INT32
    }
  }
  attr {
    key: "value"
    value {
      tensor {
        dtype: DT_INT32
        tensor_shape {
        }
        int_val: 1
      }
    }
  }
}
node {
  name: "ArgMax_1"
  op: "ArgMax"
  input: "y_"
  input: "ArgMax_1/dimension"
  attr {
    key: "T"
    value {
      type: DT_FLOAT
    }
  }
  attr {
    key: "Tidx"
    value {
      type: DT_INT32
    }
  }
  attr {
    key: "output_type"
    value {
      type: DT_INT64
    }
  }
}
node {
  name: "Equal"
  op: "Equal"
  input: "ArgMax"
  input: "ArgMax_1"
  attr {
    key: "T"
    value {
      type: DT_INT64
    }
  }
  attr {
    key: "incompatible_shape_error"
    value {
      b: true
    }
  }
}
node {
  name: "Cast"
  op: "Cast"
  input: "Equal"
  attr {
    key: "DstT"
    value {
      type: DT_FLOAT
    }
  }
  attr {
    key: "SrcT"
    value {
      type: DT_BOOL
    }
  }
  attr {
    key: "Truncate"
    value {
      b: false
    }
  }
}
node {
  name: "Const_1"
  op: "Const"
  attr {
    key: "dtype"
    value {
      type: DT_INT32
    }
  }
  attr {
    key: "value"
    value {
      tensor {
        dtype: DT_INT32
        tensor_shape {
          dim {
            size: 1
          }
        }
        int_val: 0
      }
    }
  }
}
node {
  name: "accuracy"
  op: "Mean"
  input: "Cast"
  input: "Const_1"
  attr {
    key: "T"
    value {
      type: DT_FLOAT
    }
  }
  attr {
    key: "Tidx"
    value {
      type: DT_INT32
    }
  }
  attr {
    key: "keep_dims"
    value {
      b: false
    }
  }
}
library {
}
